{
  "version": "1.0",
  "truncation": null,
  "padding": null,
  "added_tokens": [
    {
      "id": 0,
      "content": "<|pad|>",
      "single_word": false,
      "lstrip": false,
      "rstrip": false,
      "normalized": false,
      "special": true
    },
    {
      "id": 1,
      "content": "<|bos|>",
      "single_word": false,
      "lstrip": false,
      "rstrip": false,
      "normalized": false,
      "special": true
    },
    {
      "id": 2,
      "content": "<|eos|>",
      "single_word": false,
      "lstrip": false,
      "rstrip": false,
      "normalized": false,
      "special": true
    },
    {
      "id": 3,
      "content": "<|unk|>",
      "single_word": false,
      "lstrip": false,
      "rstrip": false,
      "normalized": false,
      "special": true
    }
  ],
  "normalizer": null,
  "pre_tokenizer": {
    "type": "Sequence",
    "pretokenizers": [
      {
        "type": "Split",
        "pattern": {
          "Regex": "\\\\[a-zA-Z]+"
        },
        "behavior": "Isolated",
        "invert": false
      },
      {
        "type": "ByteLevel",
        "add_prefix_space": false,
        "trim_offsets": true,
        "use_regex": true
      }
    ]
  },
  "post_processor": {
    "type": "TemplateProcessing",
    "single": [
      {
        "SpecialToken": {
          "id": "<|bos|>",
          "type_id": 0
        }
      },
      {
        "Sequence": {
          "id": "A",
          "type_id": 0
        }
      },
      {
        "SpecialToken": {
          "id": "<|eos|>",
          "type_id": 0
        }
      }
    ],
    "pair": [
      {
        "Sequence": {
          "id": "A",
          "type_id": 0
        }
      },
      {
        "Sequence": {
          "id": "B",
          "type_id": 1
        }
      }
    ],
    "special_tokens": {
      "<|bos|>": {
        "id": "<|bos|>",
        "ids": [
          1
        ],
        "tokens": [
          "<|bos|>"
        ]
      },
      "<|eos|>": {
        "id": "<|eos|>",
        "ids": [
          2
        ],
        "tokens": [
          "<|eos|>"
        ]
      }
    }
  },
  "decoder": {
    "type": "ByteLevel",
    "add_prefix_space": true,
    "trim_offsets": true,
    "use_regex": true
  },
  "model": {
    "type": "BPE",
    "dropout": null,
    "unk_token": "<|unk|>",
    "continuing_subword_prefix": null,
    "end_of_word_suffix": null,
    "fuse_unk": false,
    "byte_fallback": false,
    "ignore_merges": false,
    "vocab": {
      "<|pad|>": 0,
      "<|bos|>": 1,
      "<|eos|>": 2,
      "<|unk|>": 3,
      "!": 4,
      "\"": 5,
      "#": 6,
      "$": 7,
      "%": 8,
      "&": 9,
      "'": 10,
      "(": 11,
      ")": 12,
      "*": 13,
      "+": 14,
      ",": 15,
      "-": 16,
      ".": 17,
      "/": 18,
      "0": 19,
      "1": 20,
      "2": 21,
      "3": 22,
      "4": 23,
      "5": 24,
      "6": 25,
      "7": 26,
      "8": 27,
      "9": 28,
      ":": 29,
      ";": 30,
      "<": 31,
      "=": 32,
      ">": 33,
      "?": 34,
      "@": 35,
      "A": 36,
      "B": 37,
      "C": 38,
      "D": 39,
      "E": 40,
      "F": 41,
      "G": 42,
      "H": 43,
      "I": 44,
      "J": 45,
      "K": 46,
      "L": 47,
      "M": 48,
      "N": 49,
      "O": 50,
      "P": 51,
      "Q": 52,
      "R": 53,
      "S": 54,
      "T": 55,
      "U": 56,
      "V": 57,
      "W": 58,
      "X": 59,
      "Y": 60,
      "Z": 61,
      "[": 62,
      "\\": 63,
      "]": 64,
      "^": 65,
      "_": 66,
      "`": 67,
      "a": 68,
      "b": 69,
      "c": 70,
      "d": 71,
      "e": 72,
      "f": 73,
      "g": 74,
      "h": 75,
      "i": 76,
      "j": 77,
      "k": 78,
      "l": 79,
      "m": 80,
      "n": 81,
      "o": 82,
      "p": 83,
      "q": 84,
      "r": 85,
      "s": 86,
      "t": 87,
      "u": 88,
      "v": 89,
      "w": 90,
      "x": 91,
      "y": 92,
      "z": 93,
      "{": 94,
      "|": 95,
      "}": 96,
      "~": 97,
      "¡": 98,
      "¢": 99,
      "£": 100,
      "¤": 101,
      "¥": 102,
      "¦": 103,
      "§": 104,
      "¨": 105,
      "©": 106,
      "ª": 107,
      "«": 108,
      "¬": 109,
      "®": 110,
      "¯": 111,
      "°": 112,
      "±": 113,
      "²": 114,
      "³": 115,
      "´": 116,
      "µ": 117,
      "¶": 118,
      "·": 119,
      "¸": 120,
      "¹": 121,
      "º": 122,
      "»": 123,
      "¼": 124,
      "½": 125,
      "¾": 126,
      "¿": 127,
      "À": 128,
      "Á": 129,
      "Â": 130,
      "Ã": 131,
      "Ä": 132,
      "Å": 133,
      "Æ": 134,
      "Ç": 135,
      "È": 136,
      "É": 137,
      "Ê": 138,
      "Ë": 139,
      "Ì": 140,
      "Í": 141,
      "Î": 142,
      "Ï": 143,
      "Ð": 144,
      "Ñ": 145,
      "Ò": 146,
      "Ó": 147,
      "Ô": 148,
      "Õ": 149,
      "Ö": 150,
      "×": 151,
      "Ø": 152,
      "Ù": 153,
      "Ú": 154,
      "Û": 155,
      "Ü": 156,
      "Ý": 157,
      "Þ": 158,
      "ß": 159,
      "à": 160,
      "á": 161,
      "â": 162,
      "ã": 163,
      "ä": 164,
      "å": 165,
      "æ": 166,
      "ç": 167,
      "è": 168,
      "é": 169,
      "ê": 170,
      "ë": 171,
      "ì": 172,
      "í": 173,
      "î": 174,
      "ï": 175,
      "ð": 176,
      "ñ": 177,
      "ò": 178,
      "ó": 179,
      "ô": 180,
      "õ": 181,
      "ö": 182,
      "÷": 183,
      "ø": 184,
      "ù": 185,
      "ú": 186,
      "û": 187,
      "ü": 188,
      "ý": 189,
      "þ": 190,
      "ÿ": 191,
      "Ā": 192,
      "ā": 193,
      "Ă": 194,
      "ă": 195,
      "Ą": 196,
      "ą": 197,
      "Ć": 198,
      "ć": 199,
      "Ĉ": 200,
      "ĉ": 201,
      "Ċ": 202,
      "ċ": 203,
      "Č": 204,
      "č": 205,
      "Ď": 206,
      "ď": 207,
      "Đ": 208,
      "đ": 209,
      "Ē": 210,
      "ē": 211,
      "Ĕ": 212,
      "ĕ": 213,
      "Ė": 214,
      "ė": 215,
      "Ę": 216,
      "ę": 217,
      "Ě": 218,
      "ě": 219,
      "Ĝ": 220,
      "ĝ": 221,
      "Ğ": 222,
      "ğ": 223,
      "Ġ": 224,
      "ġ": 225,
      "Ģ": 226,
      "ģ": 227,
      "Ĥ": 228,
      "ĥ": 229,
      "Ħ": 230,
      "ħ": 231,
      "Ĩ": 232,
      "ĩ": 233,
      "Ī": 234,
      "ī": 235,
      "Ĭ": 236,
      "ĭ": 237,
      "Į": 238,
      "į": 239,
      "İ": 240,
      "ı": 241,
      "Ĳ": 242,
      "ĳ": 243,
      "Ĵ": 244,
      "ĵ": 245,
      "Ķ": 246,
      "ķ": 247,
      "ĸ": 248,
      "Ĺ": 249,
      "ĺ": 250,
      "Ļ": 251,
      "ļ": 252,
      "Ľ": 253,
      "ľ": 254,
      "Ŀ": 255,
      "ŀ": 256,
      "Ł": 257,
      "ł": 258,
      "Ń": 259,
      "Ġt": 260,
      "Ġa": 261,
      "he": 262,
      "Ġ1": 263,
      "on": 264,
      "ti": 265,
      "in": 266,
      "Ġ=": 267,
      "le": 268,
      "ro": 269,
      "er": 270,
      "tion": 271,
      "re": 272,
      "Ġthe": 273,
      "nd": 274,
      "ol": 275,
      "Ġ+": 276,
      "Ġ2": 277,
      "olu": 278,
      "Ġc": 279,
      "is": 280,
      "or": 281,
      "Ġb": 282,
      "ble": 283,
      "Ġp": 284,
      "Ġw": 285,
      "blem": 286,
      "roblem": 287,
      "ns": 288,
      "at": 289,
      "Ġ3": 290,
      "Ġand": 291,
      "ac": 292,
      "Ġ4": 293,
      "Problem": 294,
      "olution": 295,
      "Solution": 296,
      "Ġ6": 297,
      "Ġ5": 298,
      "wer": 299,
      "nswer": 300,
      "Answer": 301,
      "Ġis": 302,
      "ĠT": 303,
      "Ġ7": 304,
      "om": 305,
      "Ġd": 306,
      "Ġ8": 307,
      "es": 308,
      "Ġ9": 309,
      "Ġ$": 310,
      "Ġs": 311,
      "Ġo": 312,
      "Ġf": 313,
      "ĠÃ": 314,
      "ul": 315,
      "en": 316,
      "Ġof": 317,
      "ĠS": 318,
      "ri": 319,
      "Ġm": 320,
      "ing": 321,
      "Ġ(": 322,
      "te": 323,
      "al": 324,
      "ĠÃĹ": 325,
      "ĠI": 326,
      "ar": 327,
      "ace": 328,
      "Ġto": 329,
      "Ġre": 330,
      "Ġpl": 331,
      "Ġn": 332,
      "ĠIn": 333,
      "Ġby": 334,
      "an": 335,
      "Ġplace": 336,
      "pl": 337,
      "Ġ-": 338,
      "ator": 339,
      "dd": 340,
      "ed": 341,
      "Ġg": 342,
      "ĠW": 343,
      "Ġh": 344,
      "Ġwe": 345,
      "Ġle": 346,
      "ĠThe": 347,
      "rom": 348,
      "Ġe": 349,
      "Ġfrom": 350,
      "Ġ0": 351,
      "ĠA": 352,
      "et": 353,
      "ulti": 354,
      "omp": 355,
      "ĠSo": 356,
      "ft": 357,
      "hat": 358,
      "ct": 359,
      "us": 360,
      "iv": 361,
      "Ġ10": 362,
      "ute": 363,
      "um": 364,
      "Ġadd": 365,
      "ompute": 366,
      "Ġleft": 367,
      "Ġin": 368,
      "ow": 369,
      "ators": 370,
      "ĠC": 371,
      "gh": 372,
      "Ġbe": 373,
      "ĠTo": 374,
      "ultipl": 375,
      "Ġare": 376,
      "olum": 377,
      "ght": 378,
      "Ġ12": 379,
      "Ġcolum": 380,
      "Ġcolumn": 381,
      "ain": 382,
      "Ġden": 383,
      "Ġ11": 384,
      "ĠWe": 385,
      "right": 386,
      "im": 387,
      "**": 388,
      "ve": 389,
      "Ġright": 390,
      "omin": 391,
      "Ġdenomin": 392,
      "Ġrem": 393,
      "Ġon": 394,
      "Ġwor": 395,
      "Ġwork": 396,
      "rac": 397,
      "ds": 398,
      "it": 399,
      "id": 400,
      "if": 401,
      "Ġnum": 402,
      "as": 403,
      "Ġres": 404,
      "ult": 405,
      "Ġresult": 406,
      "ĠD": 407,
      "Â·": 408,
      "ĠM": 409,
      "and": 410,
      "ĠH": 411,
      "ation": 412,
      "ot": 413,
      "qu": 414,
      "ic": 415,
      "Ġman": 416,
      "uct": 417,
      "Ġmany": 418,
      "Ġnumer": 419,
      "ĠHow": 420,
      "Ġl": 421,
      "Ġremain": 422,
      "ĠE": 423,
      "eed": 424,
      "ultiply": 425,
      "ly": 426,
      "12": 427,
      "10": 428,
      "und": 429,
      "ition": 430,
      "impl": 431,
      "Ġpro": 432,
      "ub": 433,
      "ify": 434,
      "implify": 435,
      "Ġ13": 436,
      "Ġcompute": 437,
      "am": 438,
      "his": 439,
      "ry": 440,
      "Ġ14": 441,
      "ivid": 442,
      "Ġcon": 443,
      "hen": 444,
      "Ġ15": 445,
      "duct": 446,
      "ĠWhat": 447,
      "arry": 448,
      "Ġdenominators": 449,
      "Ġnumerators": 450,
      "ens": 451,
      "der": 452,
      "Ġproduct": 453,
      "ĠF": 454,
      "}$": 455,
      "Ġdivid": 456,
      "up": 457,
      "undre": 458,
      "Ġhundre": 459,
      "Ġones": 460,
      "Ġtens": 461,
      "Ġhundreds": 462,
      "Ġcom": 463,
      "Ġ16": 464,
      "ĠR": 465,
      "ach": 466,
      "ers": 467,
      "ĠCompute": 468,
      "Ġus": 469,
      "ĠAdd": 470,
      "Ġthere": 471,
      "carry": 472,
      "11": 473,
      "ou": 474,
      "Ġha": 475,
      "ĠMultiply": 476,
      "Ġpar": 477,
      "ple": 478,
      "Ġneed": 479,
      "trac": 480,
      "ubtrac": 481,
      "Ġdo": 482,
      "Ġ18": 483,
      "ĠThis": 484,
      "cd": 485,
      "Ġproblem": 486,
      "Ġbo": 487,
      "ent": 488,
      "Ġan": 489,
      "ho": 490,
      "20": 491,
      "ce": 492,
      ".**": 493,
      "ĠSimplify": 494,
      "Ġ20": 495,
      "Ġwhen": 496,
      "ind": 497,
      "Ġgiv": 498,
      "Ġ17": 499,
      "}{": 500,
      "st": 501,
      "Let": 502,
      "Ġ{": 503,
      "Ġex": 504,
      "Ġequ": 505,
      "roup": 506,
      "^{": 507,
      "ĠL": 508,
      "Ġdenominator": 509,
      "Ġcont": 510,
      "Ġremainder": 511,
      "ine": 512,
      "ay": 513,
      "Ġ19": 514,
      "18": 515,
      "row": 516,
      "Ġhave": 517,
      "Ġsubtrac": 518,
      "Ġ&": 519,
      "15": 520,
      "the": 521,
      "Ġdi": 522,
      "13": 523,
      "rib": 524,
      "Ġy": 525,
      "Ġgcd": 526,
      "16": 527,
      "ication": 528,
      "Ġco": 529,
      "ĠFind": 530,
      "}^{": 531,
      "Ġst": 532,
      "Ġ24": 533,
      "Ġcan": 534,
      "14": 535,
      "Ġgroup": 536,
      "ĠRe": 537,
      "ultiplication": 538,
      "Ġneeded": 539,
      "ribu": 540,
      "tal": 541,
      "Ġbor": 542,
      "Ġdoes": 543,
      "rowing": 544,
      "Ġborrowing": 545,
      "ate": 546,
      "ges": 547,
      "Ġaddition": 548,
      "ore": 549,
      "ong": 550,
      "Ġfor": 551,
      "Ġwhat": 552,
      "19": 553,
      "Ġor": 554,
      "$.": 555,
      "17": 556,
      "Ġmultiplication": 557,
      "Ġequal": 558,
      "Ġ30": 559,
      "ĊĊ": 560,
      "ies": 561,
      "xt": 562,
      "Ġdivide": 563,
      "ef": 564,
      "Ġyou": 565,
      "ist": 566,
      "frac": 567,
      "Ġtho": 568,
      ")/": 569,
      "il": 570,
      "Ġthat": 571,
      "tial": 572,
      "tin": 573,
      ")/(": 574,
      "ĠP": 575,
      "usand": 576,
      "Ġthousand": 577,
      "Ġ22": 578,
      "Ġthousands": 579,
      "text": 580,
      "ĠEx": 581,
      "Ġ36": 582,
      "Ġ28": 583,
      "Ġuse": 584,
      "Ġnot": 585,
      "Ġbox": 586,
      ").": 587,
      "ok": 588,
      "Ġsubtraction": 589,
      "efin": 590,
      "ir": 591,
      "Ġ27": 592,
      "Ġ40": 593,
      "Ġ25": 594,
      "rite": 595,
      "ak": 596,
      "Ġ|": 597,
      "Ġcomm": 598,
      "mat": 599,
      "Ġhas": 600,
      "Ġthen": 601,
      "to": 602,
      "Ġ23": 603,
      "Ġlea": 604,
      "ĠExp": 605,
      "Ġlong": 606,
      "Ġeach": 607,
      "The": 608,
      "Ġ60": 609,
      "Ġpartial": 610,
      "Ġcommon": 611,
      "git": 612,
      "anding": 613,
      "Ġproducts": 614,
      "Ġ26": 615,
      "Ġcomputed": 616,
      "ĠExpanding": 617,
      "ap": 618,
      "write": 619,
      "ys": 620,
      "Ġdigit": 621,
      "ting": 622,
      "ĠLC": 623,
      "ĠRewrite": 624,
      "ĠLCM": 625,
      "Ġget": 626,
      "ver": 627,
      "Ġ33": 628,
      "ith": 629,
      "Ġ35": 630,
      "Ġ48": 631,
      "Ġequals": 632,
      "Ġ32": 633,
      "_{": 634,
      "Ġ45": 635,
      "ove": 636,
      "tic": 637,
      "Ġgiving": 638,
      "ĠÃ·": 639,
      "Ġcontain": 640,
      "Ġal": 641,
      "efinition": 642,
      "os": 643,
      "âĪ": 644,
      "Ġ29": 645,
      "Ġwith": 646,
      "ction": 647,
      "end": 648,
      "Ġcomb": 649,
      "ĠEach": 650,
      "Ġ42": 651,
      "Ġ56": 652,
      "un": 653,
      "val": 654,
      "Ġ44": 655,
      "Ġcontains": 656,
      "Ġ34": 657,
      "Ġcombine": 658,
      "Ġremove": 659,
      "Ġ72": 660,
      "ence": 661,
      "Ġ50": 662,
      "ving": 663,
      "Ġ39": 664,
      "ts": 665,
      "Ġ55": 666,
      "Ġ63": 667,
      "Ġ54": 668,
      "rect": 669,
      "Ġ70": 670,
      "Ġ66": 671,
      "Ġ38": 672,
      "Ġ80": 673,
      "istribu": 674,
      "Ġlar": 675,
      "ultiple": 676,
      "Ġas": 677,
      "uc": 678,
      "Ġ37": 679,
      "24": 680,
      "Ġmultiple": 681,
      "Ġ49": 682,
      "gest": 683,
      "Ġexc": 684,
      "Ġlargest": 685,
      "Ġ\\": 686,
      "Ġ64": 687,
      "rectly": 688,
      "ut": 689,
      "Ġleaving": 690,
      "Ġexceed": 691,
      "Ġtotal": 692,
      "Ġ21": 693,
      "Ġexceeding": 694,
      "30": 695,
      "Ġ77": 696,
      "Ġ90": 697,
      "valu": 698,
      "ingle": 699,
      "Ġ57": 700,
      "Ġsingle": 701,
      "Ġ84": 702,
      "Ġ46": 703,
      "Ġmultiply": 704,
      "ĠIf": 705,
      "Ġ65": 706,
      "se": 707,
      "ra": 708,
      "ĠDistribu": 709,
      "cul": 710,
      "Ġ47": 711,
      "Ġ43": 712,
      "Ġ68": 713,
      "alcul": 714,
      "Ġ75": 715,
      "Ġgroups": 716,
      "are": 717,
      "Ġ59": 718,
      "Ġ78": 719,
      "ĠDistributing": 720,
      "Ġ88": 721,
      "Ġ69": 722,
      "Ġ58": 723,
      "Ġap": 724,
      "Ġ67": 725,
      "ĠÂ·": 726,
      "Ġ76": 727,
      "Ġsum": 728,
      "Ġ52": 729,
      "Ġ*": 730,
      "$,": 731,
      "Ġ53": 732,
      "Ġ74": 733,
      "Ġsimplify": 734,
      "Ġ79": 735,
      "alculate": 736,
      "##": 737,
      "Ġ96": 738,
      "tes": 739,
      "Ġ99": 740,
      "Ġinto": 741,
      "Ġtak": 742,
      "ĠCalculate": 743,
      "per": 744,
      "olle": 745,
      "Ġ73": 746,
      "ples": 747,
      "ere": 748,
      "Ġgives": 749,
      "Ġ85": 750,
      "Ġ62": 751,
      "ĠĊ": 752,
      "ps": 753,
      "str": 754,
      "ag": 755,
      "ec": 756,
      "Ġcolle": 757,
      "ted": 758,
      "ĠTotal": 759,
      "rix": 760,
      "âĪĴ": 761,
      "uch": 762,
      "day": 763,
      "Ġcontribu": 764,
      "}_{": 765,
      "enc": 766,
      "Ġ95": 767,
      "Ġcontributes": 768,
      "Ġwere": 769,
      "Ġthem": 770,
      "Ġ89": 771,
      "Ġnumerator": 772,
      "Ġ86": 773,
      "Ġcar": 774,
      "Ġtim": 775,
      "Ġ98": 776,
      "bles": 777,
      "Ġ87": 778,
      "orem": 779,
      "ĠJ": 780,
      "Ġdividing": 781,
      "36": 782,
      "fer": 783,
      "ion": 784,
      "Ġall": 785,
      "Ġ\\\\": 786,
      "40": 787,
      "de": 788,
      "Ġ97": 789,
      "struct": 790,
      "irst": 791,
      "Ġer": 792,
      "Ġnumb": 793,
      "unction": 794,
      "Ġbook": 795,
      "ins": 796,
      "Ġcards": 797,
      "Ġmar": 798,
      "tive": 799,
      "anges": 800,
      "ĠPro": 801,
      "Ġbooks": 802,
      "Ġcook": 803,
      "Ġ94": 804,
      "Ġcookies": 805,
      "int": 806,
      "Ġat": 807,
      "tick": 808,
      "Ġtoys": 809,
      "her": 810,
      "Ġstick": 811,
      "ils": 812,
      "amps": 813,
      "Ġstickers": 814,
      "Ġstamps": 815,
      "Ġ83": 816,
      "Ġcand": 817,
      "Ġit": 818,
      "Ġoranges": 819,
      "ads": 820,
      "Ġcoins": 821,
      "Ġapples": 822,
      "Ġcandies": 823,
      "Ġeras": 824,
      "Ġerasers": 825,
      "Ġfirst": 826,
      "Ġmarbles": 827,
      "Ġpenc": 828,
      "Ġ82": 829,
      "Ġbeads": 830,
      "Ġpencils": 831,
      "60": 832,
      "Ġtimes": 833,
      "of": 834,
      "eg": 835,
      "pace": 836,
      "Ġ93": 837,
      "Ġfri": 838,
      "ations": 839,
      "Ġfriend": 840,
      "orm": 841,
      "Ġ92": 842,
      "ĠN": 843,
      "ie": 844,
      "iffer": 845,
      "ven": 846,
      "ta": 847,
      "ur": 848,
      "ig": 849,
      "math": 850,
      "matrix": 851,
      "Ġqu": 852,
      "act": 853,
      "Ġdiffer": 854,
      "ge": 855,
      ")$": 856,
      "ĠDefinition": 857,
      "Then": 858,
      "Ġsh": 859,
      "Theorem": 860,
      "Ġ31": 861,
      "Ġpo": 862,
      "art": 863,
      "Ġeven": 864,
      "res": 865,
      "ĠDi": 866,
      "Ġvalu": 867,
      "00": 868,
      "Ġx": 869,
      "ment": 870,
      "Ġset": 871,
      "Ġdirectly": 872,
      ")?": 873,
      "Ġorder": 874,
      "map": 875,
      "}+": 876,
      "Ġr": 877,
      "âĢ": 878,
      "28": 879,
      "mathb": 880,
      "Ġmore": 881,
      "ter": 882,
      "ase": 883,
      "Ġse": 884,
      "oth": 885,
      "Ġfunction": 886,
      "ph": 887,
      "oti": 888,
      "Ġ41": 889,
      "lex": 890,
      "og": 891,
      "Ġ${": 892,
      "sq": 893,
      "ĠAdding": 894,
      "Ġ51": 895,
      "vect": 896,
      "th": 897,
      "Ġsubtract": 898,
      "$$": 899,
      "low": 900,
      "very": 901,
      "Ġused": 902,
      "Ġhow": 903,
      "ĠB": 904,
      "cl": 905,
      "Ġevenly": 906,
      "set": 907,
      "ĠDirectly": 908,
      "Ġpart": 909,
      "Ġmin": 910,
      "Ġboth": 911,
      "ĠProof": 912,
      "Ġnumber": 913,
      "Ġout": 914,
      "ĠAn": 915,
      "Ġth": 916,
      "Ġstart": 917,
      "ord": 918,
      "Ġplus": 919,
      "inal": 920,
      "Ġbas": 921,
      "Ġ61": 922,
      "otient": 923,
      "Ġthis": 924,
      "Ġparts": 925,
      "rt": 926,
      "ity": 927,
      "way": 928,
      "72": 929,
      "Ġdifference": 930,
      "Ġgets": 931,
      "Ġ71": 932,
      "Ġnow": 933,
      "Ġam": 934,
      "ile": 935,
      "22": 936,
      "fore": 937,
      "Ġtake": 938,
      ")=": 939,
      "Ġhad": 940,
      "erm": 941,
      "Ġvalue": 942,
      "sqrt": 943,
      ".$": 944,
      "cted": 945,
      "ample": 946,
      "Ġwh": 947,
      "Ġmuch": 948,
      "gle": 949,
      "}}": 950,
      "Ġquotient": 951,
      "ĠQ": 952,
      "ollow": 953,
      "56": 954,
      "Ġusing": 955,
      "other": 956,
      "ĠG": 957,
      "Ġv": 958,
      "mathbf": 959,
      "90": 960,
      "Ġ81": 961,
      "ding": 962,
      "70": 963,
      "ĠThere": 964,
      "Ġfollow": 965,
      "ich": 966,
      "Ġdid": 967,
      "55": 968,
      "Ġbu": 969,
      "âĵ": 970,
      "tions": 971,
      "ket": 972,
      "ubtract": 973,
      "35": 974,
      "cdot": 975,
      "Ġbag": 976,
      "Ġaway": 977,
      "ĠMon": 978,
      "ĠLe": 979,
      "ues": 980,
      "45": 981,
      "ma": 982,
      "Ġbec": 983,
      "lar": 984,
      "Ġoper": 985,
      "ĠThen": 986,
      "Definition": 987,
      "ĠSubtract": 988,
      "irc": 989,
      "Ġminus": 990,
      "ĠQu": 991,
      "44": 992,
      "ical": 993,
      "33": 994,
      "Ġfrac": 995,
      "Ġcollect": 996,
      "Ġcollected": 997,
      "ĠMonday": 998,
      "Ġform": 999,
      "uesday": 1000,
      "ĠTuesday": 1001,
      "ill": 1002,
      "Ġamong": 1003,
      "ari": 1004,
      "inn": 1005,
      "88": 1006,
      "so": 1007,
      "Ġspace": 1008,
      "Ġboxes": 1009,
      "21": 1010,
      "Ġbuys": 1011,
      "84": 1012,
      "25": 1013,
      "Ġ.": 1014,
      "teg": 1015,
      "Ġwhich": 1016,
      "Ġ91": 1017,
      "Ex": 1018,
      "ad": 1019,
      "Ġcomp": 1020,
      "Ġtaken": 1021,
      "66": 1022,
      "99": 1023,
      "ĠAnother": 1024,
      "Ġline": 1025,
      "}=": 1026,
      "42": 1027,
      "wo": 1028,
      "Ġsub": 1029,
      "ĠDo": 1030,
      "Ġ$(": 1031,
      "__": 1032,
      "}-": 1033,
      "ure": 1034,
      "ĠLeft": 1035,
      "Ġwan": 1036,
      "Ġbasket": 1037,
      "lor": 1038,
      "Ġk": 1039,
      "Ġsol": 1040,
      "77": 1041,
      "here": 1042,
      "valuate": 1043,
      "ĠO": 1044,
      "omes": 1045,
      "gan": 1046,
      "Ġme": 1047,
      "ĠMor": 1048,
      "Ġfractions": 1049,
      "ite": 1050,
      "80": 1051,
      "able": 1052,
      "aylor": 1053,
      "quence": 1054,
      "ky": 1055,
      "ĠTaylor": 1056,
      "ĠCase": 1057,
      "lement": 1058,
      "ĠCon": 1059,
      "egin": 1060,
      "ĠAlex": 1061,
      "ĠMorgan": 1062,
      "Ġbefore": 1063,
      "ota": 1064,
      "Ġfinal": 1065,
      "rew": 1066,
      "ric": 1067,
      "begin": 1068,
      "ĠQuinn": 1069,
      "ordan": 1070,
      "Ġmultiplications": 1071,
      "63": 1072,
      "ĠSam": 1073,
      "ĠU": 1074,
      "ĠJordan": 1075,
      "ect": 1076,
      "eron": 1077,
      "ĠSky": 1078,
      "ĠSkylar": 1079,
      "Ġleading": 1080,
      "Ġbecomes": 1081,
      "tim": 1082,
      "ĠCasey": 1083,
      "ĠCam": 1084,
      "ĠDrew": 1085,
      "ĠCameron": 1086,
      "}(": 1087,
      "ĠDak": 1088,
      "Ġoperations": 1089,
      "ĠDakota": 1090,
      "ĠRile": 1091,
      "ĠRiley": 1092,
      "ese": 1093,
      "ĠAvery": 1094,
      "Ġwants": 1095,
      "Ġcarry": 1096,
      "rap": 1097,
      "ĠJam": 1098,
      "Ġshare": 1099,
      "ame": 1100,
      "ĠJamie": 1101,
      "ote": 1102,
      "Ġ:": 1103,
      "32": 1104,
      "Ġsuch": 1105,
      "Ġâĵ": 1106,
      "Ġequally": 1107,
      "ĠReese": 1108,
      "Ġfriends": 1109,
      "Ġ100": 1110,
      "Ġun": 1111,
      "our": 1112,
      "ty": 1113,
      ",$": 1114,
      "ld": 1115,
      "ud": 1116,
      "Ġtwo": 1117,
      "raph": 1118,
      "Ġone": 1119,
      "ll": 1120,
      "ous": 1121,
      "ince": 1122,
      "vers": 1123,
      "ial": 1124,
      "ude": 1125,
      "Ġ120": 1126,
      "vector": 1127,
      "ĠEvaluate": 1128,
      "erc": 1129,
      "}}{": 1130,
      "ative": 1131,
      "50": 1132,
      "Ġwill": 1133,
      "Ġgo": 1134,
      "ivis": 1135,
      "Ġ**": 1136,
      "Ġ110": 1137,
      "ary": 1138,
      "od": 1139,
      "aren": 1140,
      "times": 1141,
      "pres": 1142,
      "48": 1143,
      "pha": 1144,
      "clude": 1145,
      "Ġinteg": 1146,
      "pos": 1147,
      "ide": 1148,
      "ze": 1149,
      "}$.": 1150,
      "own": 1151,
      "27": 1152,
      "Ġmat": 1153,
      "alpha": 1154,
      "Ġfollowing": 1155,
      "angle": 1156,
      "64": 1157,
      "me": 1158,
      "ight": 1159,
      "circ": 1160,
      "olog": 1161,
      "ome": 1162,
      "ant": 1163,
      "Ġpoint": 1164,
      "Ġdivided": 1165,
      "Ġif": 1166,
      "ivide": 1167,
      "96": 1168,
      "75": 1169,
      "pi": 1170,
      "Ġ108": 1171,
      "Ġcl": 1172,
      "Ġcost": 1173,
      "38": 1174,
      "Ġequation": 1175,
      "ab": 1176,
      "ĠâĪ": 1177,
      "26": 1178,
      "34": 1179,
      "oun": 1180,
      "app": 1181,
      "ĠâĪİ": 1182,
      "est": 1183,
      "Ġhol": 1184,
      "quare": 1185,
      "ĠDivide": 1186,
      "ĠV": 1187,
      "Ġ\\,": 1188,
      "all": 1189,
      "ses": 1190,
      "Ġdefinition": 1191,
      "enti": 1192,
      "polog": 1193,
      "})": 1194,
      "Ġnumbers": 1195,
      "ree": 1196,
      "76": 1197,
      "inite": 1198,
      "only": 1199,
      "Ġsp": 1200,
      "ots": 1201,
      "ercis": 1202,
      "include": 1203,
      "onlyinclude": 1204,
      "Ġvector": 1205,
      "rans": 1206,
      "Ġab": 1207,
      "ivision": 1208,
      "},": 1209,
      "ents": 1210,
      "We": 1211,
      "In": 1212,
      "ther": 1213,
      "Ġinter": 1214,
      "Ġpos": 1215,
      "Ġelement": 1216,
      "Ġkn": 1217,
      "Ġgraph": 1218,
      "\\\\": 1219,
      "95": 1220,
      "em": 1221,
      "etric": 1222,
      "Ġso": 1223,
      "osed": 1224,
      "Ġ,": 1225,
      "Ġholds": 1226,
      "alle": 1227,
      "Ġreal": 1228,
      "efined": 1229,
      "Ġvari": 1230,
      "tau": 1231,
      "ular": 1232,
      "Ġsold": 1233,
      "oc": 1234,
      "Example": 1235,
      "ated": 1236,
      "Ġ132": 1237,
      "54": 1238,
      "pen": 1239,
      "68": 1240,
      "itive": 1241,
      "Ġterm": 1242,
      "39": 1243,
      "Ġexact": 1244,
      "Ġstud": 1245,
      "52": 1246,
      "sub": 1247,
      "tinu": 1248,
      "ess": 1249,
      "$-": 1250,
      "57": 1251,
      "pro": 1252,
      "ne": 1253,
      "Ġbags": 1254,
      "####": 1255,
      "Ġfind": 1256,
      "theta": 1257,
      "pe": 1258,
      "ast": 1259,
      "cc": 1260,
      "ĠSpace": 1261,
      "65": 1262,
      "Ġpri": 1263,
      "Ġexactly": 1264,
      "Ġover": 1265,
      "Ġthan": 1266,
      "sin": 1267,
      "ĠSince": 1268,
      "Ġch": 1269,
      "ass": 1270,
      "geb": 1271,
      "age": 1272,
      "49": 1273,
      "apping": 1274,
      "23": 1275,
      "Ġwhere": 1276,
      "78": 1277,
      "Ġalso": 1278,
      "98": 1279,
      "omial": 1280,
      "51": 1281,
      "ard": 1282,
      "Ġdefined": 1283,
      "umb": 1284,
      "ust": 1285,
      "{{": 1286,
      "gebra": 1287,
      "85": 1288,
      "ĠX": 1289,
      "Ġ112": 1290,
      "110": 1291,
      "cos": 1292,
      "ener": 1293,
      "From": 1294,
      "Ġsame": 1295,
      "29": 1296,
      "unders": 1297,
      "uld": 1298,
      "igma": 1299,
      "132": 1300,
      "Ġ144": 1301,
      "100": 1302,
      "Ġ126": 1303,
      "ĠMultiplication": 1304,
      "\\,": 1305,
      "ive": 1306,
      "Ġwho": 1307,
      "Ġne": 1308,
      "92": 1309,
      "form": 1310,
      "Ġsolution": 1311,
      "pre": 1312,
      "ale": 1313,
      "ĠDivision": 1314,
      "el": 1315,
      "phis": 1316,
      "91": 1317,
      "ally": 1318,
      "phism": 1319,
      "Ġ140": 1320,
      "Ġhe": 1321,
      "omor": 1322,
      "}_": 1323,
      "Ġper": 1324,
      "ĊĊĠ": 1325,
      "37": 1326,
      "ch": 1327,
      "'s": 1328,
      "ĠComp": 1329,
      "tem": 1330,
      "Ġ104": 1331,
      "58": 1332,
      "74": 1333,
      "arenthe": 1334,
      "actor": 1335,
      "81": 1336,
      "ci": 1337,
      "teq": 1338,
      "seteq": 1339,
      "Ġsquare": 1340,
      "sum": 1341,
      "arentheses": 1342,
      "Ġdis": 1343,
      "Ġrel": 1344,
      "Ġ180": 1345,
      "By": 1346,
      "we": 1347,
      "Ġ105": 1348,
      "ang": 1349,
      "Ġgiven": 1350,
      "Ġlinear": 1351,
      "subseteq": 1352,
      "86": 1353,
      "94": 1354,
      "31": 1355,
      "tinuous": 1356,
      "ercises": 1357,
      "Ġwas": 1358,
      "97": 1359,
      "underset": 1360,
      "phi": 1361,
      "ian": 1362,
      ")}^{": 1363,
      "ystem": 1364,
      "hop": 1365,
      "zero": 1366,
      "ati": 1367,
      "ym": 1368,
      "oly": 1369,
      "ĠFunction": 1370,
      "62": 1371,
      "ĠParentheses": 1372,
      "Ġtopolog": 1373,
      "ection": 1374,
      "pose": 1375,
      "73": 1376,
      "Ġbet": 1377,
      "mathop": 1378,
      "riangle": 1379,
      "press": 1380,
      "ield": 1381,
      "pend": 1382,
      "46": 1383,
      "ween": 1384,
      "79": 1385,
      "sequence": 1386,
      "ign": 1387,
      "Ġits": 1388,
      "82": 1389,
      "Ġ130": 1390,
      "71": 1391,
      "ance": 1392,
      "ĠSet": 1393,
      "amples": 1394,
      "ule": 1395,
      "}}$": 1396,
      "ĠNumb": 1397,
      "Ġany": 1398,
      "89": 1399,
      "Ġknown": 1400,
      "Ġexpress": 1401,
      "iz": 1402,
      "ists": 1403,
      "69": 1404,
      "ound": 1405,
      "ĠEqu": 1406,
      "Ġro": 1407,
      "ng": 1408,
      "rad": 1409,
      "83": 1410,
      "Ġde": 1411,
      "Ġma": 1412,
      "px": 1413,
      "59": 1414,
      "ral": 1415,
      "ue": 1416,
      "Ġexercises": 1417,
      "Ġbetween": 1418,
      "87": 1419,
      "ĠSub": 1420,
      "41": 1421,
      "ational": 1422,
      "53": 1423,
      "47": 1424,
      "ves": 1425,
      "Ġ150": 1426,
      "Ġno": 1427,
      "Ġj": 1428,
      "ĠAl": 1429,
      "67": 1430,
      "93": 1431,
      "____": 1432,
      "43": 1433,
      "ans": 1434,
      "{(": 1435,
      "Ġob": 1436,
      "Ġmo": 1437,
      "Ġsequence": 1438,
      "aus": 1439,
      "Ġdenote": 1440,
      "Ġfollows": 1441,
      "Ġother": 1442,
      "out": 1443,
      "cep": 1444,
      "Ġ160": 1445,
      "Ġ117": 1446,
      "Ġmatrix": 1447,
      "Ġsome": 1448,
      "Ġ102": 1449,
      "ldots": 1450,
      "61": 1451,
      "omorphism": 1452,
      "ints": 1453,
      "Ġar": 1454,
      "overs": 1455,
      "ake": 1456,
      "ane": 1457,
      "sid": 1458,
      "ĠNote": 1459,
      "uppose": 1460,
      "overset": 1461,
      "eterm": 1462,
      "uple": 1463,
      "ĊĊĠĊ": 1464,
      "ond": 1465,
      "ory": 1466,
      "ĠâĵĲ": 1467,
      "ility": 1468,
      "For": 1469,
      "Ġ240": 1470,
      "Ġund": 1471,
      "Ġtrans": 1472,
      ")(": 1473,
      "ĠCl": 1474,
      "ss": 1475,
      "ĠUn": 1476,
      "verse": 1477,
      "Ġ119": 1478,
      "âĢĻ": 1479,
      "Ġnorm": 1480,
      "Ġmapping": 1481,
      "ower": 1482,
      "Ġdec": 1483,
      "Ġangle": 1484,
      "red": 1485,
      "Ġver": 1486,
      "Ġsystem": 1487,
      "sider": 1488,
      "fic": 1489,
      "{âĪĴ": 1490,
      "ĠSe": 1491,
      "nomial": 1492,
      "par": 1493,
      "ĠK": 1494,
      "olynomial": 1495,
      "tuple": 1496,
      "Ġfunctions": 1497,
      "Ġgener": 1498,
      "Ġprime": 1499,
      "Ġâĵĳ": 1500,
      "Ġnon": 1501,
      "ĠSt": 1502,
      "Ġ121": 1503,
      "Ġzero": 1504,
      "ack": 1505,
      "norm": 1506,
      "alen": 1507,
      "Ġsubset": 1508,
      "Ġ114": 1509,
      "}.$": 1510,
      "Ġte": 1511,
      "ates": 1512,
      "tical": 1513,
      "Ġwhose": 1514,
      "05": 1515,
      "04": 1516,
      "ivalen": 1517,
      "ĠTheorem": 1518,
      "line": 1519,
      "Ġbut": 1520,
      "Ġind": 1521,
      "$:": 1522,
      "*.": 1523,
      "si": 1524,
      "xim": 1525,
      "Ġtr": 1526,
      "cre": 1527,
      "08": 1528,
      "eta": 1529,
      "Ġ128": 1530,
      "Ġup": 1531,
      "Ġ135": 1532,
      "Ġexample": 1533,
      "Ġunit": 1534,
      "ĉĉ": 1535,
      "Ġinterval": 1536,
      "Ġunder": 1537,
      "âĪŀ": 1538,
      "Pro": 1539,
      "Ġring": 1540,
      "ties": 1541,
      "Hence": 1542,
      "ula": 1543,
      "Ġlet": 1544,
      "Ġ####": 1545,
      "quad": 1546,
      "ability": 1547,
      "Ġmeas": 1548,
      "01": 1549,
      "Ġfactor": 1550,
      "ential": 1551,
      "This": 1552,
      "Ġopen": 1553,
      "Ġevery": 1554,
      "({": 1555,
      "Ġbound": 1556,
      "Ġpositive": 1557,
      "Ġmean": 1558,
      "Ġonly": 1559,
      "ise": 1560,
      "pon": 1561,
      "omain": 1562,
      "oint": 1563,
      "ange": 1564,
      "Ġ\"": 1565,
      "lo": 1566,
      "ngth": 1567,
      "vi": 1568,
      "###": 1569,
      "amb": 1570,
      "Ġ}": 1571,
      "hes": 1572,
      "*-": 1573,
      "Ġsm": 1574,
      "dfrac": 1575,
      "Ġim": 1576,
      "Ġexists": 1577,
      "06": 1578,
      "Ġcirc": 1579,
      "paren": 1580,
      "da": 1581,
      "Ġsec": 1582,
      "yp": 1583,
      "ters": 1584,
      "Ġfinite": 1585,
      "Ġfield": 1586,
      "orical": 1587,
      "ĠSolution": 1588,
      "les": 1589,
      "Ġid": 1590,
      "Ġrepres": 1591,
      "Ġ$âĪĴ": 1592,
      "ambda": 1593,
      "Ġequations": 1594,
      "02": 1595,
      "ective": 1596,
      "Ġpoints": 1597,
      "ater": 1598,
      "imit": 1599,
      "Ġlength": 1600,
      "Ġvalues": 1601,
      "Con": 1602,
      "formation": 1603,
      "mathbb": 1604,
      "07": 1605,
      "rder": 1606,
      "It": 1607,
      "Ġ133": 1608,
      "ear": 1609,
      "Al": 1610,
      "ram": 1611,
      "Ġ136": 1612,
      "09": 1613,
      "group": 1614,
      "ĠY": 1615,
      "aces": 1616,
      "}+{": 1617,
      "Ġ168": 1618,
      "bability": 1619,
      "ck": 1620,
      "Ġproper": 1621,
      "Ġ107": 1622,
      "ject": 1623,
      "âĢ²": 1624,
      "),": 1625,
      "fter": 1626,
      "Ġterms": 1627,
      "por": 1628,
      "Ġ220": 1629,
      "ĠFor": 1630,
      "03": 1631,
      "Ġshow": 1632,
      "Ġtime": 1633,
      "Ġ101": 1634,
      "Ġ154": 1635,
      "dition": 1636,
      "Ġtopological": 1637,
      "Ġdistribu": 1638,
      "Ġ216": 1639,
      "fici": 1640,
      "Ġ103": 1641,
      "120": 1642,
      "one": 1643,
      "Ġthese": 1644,
      "âĢĵ": 1645,
      "Ġ106": 1646,
      "Ġconver": 1647,
      "ces": 1648,
      "Ġcontinuous": 1649,
      "tep": 1650,
      "hus": 1651,
      "Ġthree": 1652,
      "ulation": 1653,
      "xis": 1654,
      "Ġ210": 1655,
      "ual": 1656,
      "Ġ143": 1657,
      "eries": 1658,
      "Ġ115": 1659,
      "Ġstudents": 1660,
      "Ġidenti": 1661,
      "andard": 1662,
      "Ġclosed": 1663,
      "Ġmet": 1664,
      "iqu": 1665,
      "ould": 1666,
      "Ġyour": 1667,
      "uction": 1668,
      "ected": 1669,
      "Ġvariable": 1670,
      "xi": 1671,
      "Ġrad": 1672,
      "Ġexpression": 1673,
      "ĠâĪĴ": 1674,
      "istorical": 1675,
      "Ġalgebra": 1676,
      "Ġmay": 1677,
      "Ġinde": 1678,
      "lim": 1679,
      "heck": 1680,
      "Ġdeterm": 1681,
      "sing": 1682,
      "Ġappl": 1683,
      "RR": 1684,
      "Ġpolynomial": 1685,
      "Ġwould": 1686,
      "ĠInteg": 1687,
      "Ġreg": 1688,
      "ĠLine": 1689,
      "ĠZ": 1690,
      "ount": 1691,
      "Ġ116": 1692,
      "Ġelements": 1693,
      "Ġmust": 1694,
      "atis": 1695,
      "lete": 1696,
      "lambda": 1697,
      "Ġ113": 1698,
      "Ġ176": 1699,
      "Ġ109": 1700,
      "=âĪĴ": 1701,
      "ceq": 1702,
      "Ġsets": 1703,
      "enter": 1704,
      "ied": 1705,
      "Ġpre": 1706,
      "Historical": 1707,
      "air": 1708,
      "beta": 1709,
      "ke": 1710,
      "del": 1711,
      "ounta": 1712,
      "Proof": 1713,
      ").$": 1714,
      "Ġprobability": 1715,
      "ause": 1716,
      "bmatrix": 1717,
      "ĠGroup": 1718,
      "Ġ153": 1719,
      "Ġ156": 1720,
      "Ġappro": 1721,
      "ip": 1722,
      "ateg": 1723,
      "Ġthey": 1724,
      "Ġ{\\,": 1725,
      "Sigma": 1726,
      "Ġ198": 1727,
      "tit": 1728,
      "Ġcor": 1729,
      "Ġstr": 1730,
      "ever": 1731,
      "jection": 1732,
      "ating": 1733,
      "ides": 1734,
      "mu": 1735,
      "Ġsc": 1736,
      "Ġ124": 1737,
      "Examples": 1738,
      "Ġ162": 1739,
      "000": 1740,
      "bol": 1741,
      "Ġcur": 1742,
      "Ġ165": 1743,
      "Ġfe": 1744,
      "There": 1745,
      "imal": 1746,
      "Ġsym": 1747,
      "Ġsur": 1748,
      "Ġ152": 1749,
      "âĮ": 1750,
      "Ġmade": 1751,
      "Ġ320": 1752,
      "{/": 1753,
      "$(": 1754,
      "for": 1755,
      "ables": 1756,
      "ook": 1757,
      "stant": 1758,
      "Ġformula": 1759,
      "preceq": 1760,
      "Ġarea": 1761,
      "sigma": 1762,
      "ata": 1763,
      "br": 1764,
      "ĠForm": 1765,
      "Ġabout": 1766,
      "Ġ123": 1767,
      "If": 1768,
      "):": 1769,
      "hed": 1770,
      "cept": 1771,
      "ĠLet": 1772,
      "ordin": 1773,
      "Ġordered": 1774,
      "Ġstandard": 1775,
      "alled": 1776,
      "Ġdistribution": 1777,
      "Ġrelation": 1778,
      "Ġ125": 1779,
      "Ġintegral": 1780,
      "Ġ118": 1781,
      "&=": 1782,
      "Ġ<": 1783,
      "Thus": 1784,
      "ten": 1785,
      "ĠProduct": 1786,
      "Ġcalled": 1787,
      "180": 1788,
      "egative": 1789,
      "Ġside": 1790,
      "So": 1791,
      "Ġplane": 1792,
      "That": 1793,
      "Ġ200": 1794,
      "Ġinf": 1795,
      "eriv": 1796,
      "pendent": 1797,
      "Ġrow": 1798,
      "Ġsim": 1799,
      "Ġmeans": 1800,
      "igh": 1801,
      "Ġ300": 1802,
      "vel": 1803,
      "Ġsolve": 1804,
      "Ġinteger": 1805,
      "}^{âĢ²": 1806,
      "ĠNumber": 1807,
      "ily": 1808,
      "Ġsecond": 1809,
      "log": 1810,
      "Ġ192": 1811,
      "equ": 1812,
      "atur": 1813,
      "Ġafter": 1814,
      "Ġ111": 1815,
      "ĠReal": 1816,
      "olve": 1817,
      "Ġintegers": 1818,
      "Ġ127": 1819,
      "ither": 1820,
      "ff": 1821,
      "}{{": 1822,
      "Ġ360": 1823,
      "Ġ252": 1824,
      "Ġmeasure": 1825,
      "ĠOrder": 1826,
      "Ġresp": 1827,
      "con": 1828,
      "ull": 1829,
      "Ġtriangle": 1830,
      "Ġ171": 1831,
      "rou": 1832,
      "ines": 1833,
      "*(": 1834,
      "ector": 1835,
      "ĠMat": 1836,
      "Ġstudent": 1837,
      "xiom": 1838,
      "stit": 1839,
      "Ġway": 1840,
      "Ġstate": 1841,
      "sqbr": 1842,
      "sqbrk": 1843,
      "Ġrece": 1844,
      "Ġ170": 1845,
      "zz": 1846,
      "Ġdist": 1847,
      "Ġ122": 1848,
      "tain": 1849,
      "Ġyear": 1850,
      "ix": 1851,
      "Ġlog": 1852,
      "Ġloc": 1853,
      "Ġdomain": 1854,
      "ccur": 1855,
      "ases": 1856,
      "^{-": 1857,
      "sc": 1858,
      "ĠCh": 1859,
      ")+": 1860,
      "Ġdifferent": 1861,
      "ey": 1862,
      "uzz": 1863,
      "Ġtheir": 1864,
      "ficient": 1865,
      "left": 1866,
      "Ġanswer": 1867,
      "dx": 1868,
      "Ġtri": 1869,
      "nected": 1870,
      "Ġ}$": 1871,
      "(âĪĴ": 1872,
      "tice": 1873,
      "Ġ>": 1874,
      "rict": 1875,
      "144": 1876,
      "Ġpop": 1877,
      "ĠProper": 1878,
      "ice": 1879,
      "{âĪĴ}": 1880,
      "Ġdes": 1881,
      "{/}": 1882,
      "rough": 1883,
      "ike": 1884,
      "ension": 1885,
      "Suppose": 1886,
      "ecess": 1887,
      "Ġcase": 1888,
      "AB": 1889,
      "Ġpower": 1890,
      "Ġdata": 1891,
      "ĠNumbers": 1892,
      "ug": 1893,
      "imension": 1894,
      "andom": 1895,
      "Ġ204": 1896,
      "Ġ138": 1897,
      "Ġcircle": 1898,
      "Ġhis": 1899,
      "})$": 1900,
      "Ġseries": 1901,
      "sible": 1902,
      "Ġwrite": 1903,
      "perator": 1904,
      "where": 1905,
      "ours": 1906,
      ")={": 1907,
      "Ġ288": 1908,
      "raight": 1909,
      "ometric": 1910,
      "Ġ129": 1911,
      "})}^{": 1912,
      "ique": 1913,
      "Also": 1914,
      "Ġ134": 1915,
      "Ġ187": 1916,
      "uced": 1917,
      "Ġsides": 1918,
      "Ġ190": 1919,
      "Simplify": 1920,
      "Ġ270": 1921,
      "Ġsample": 1922,
      "atural": 1923,
      "Ġorig": 1924,
      "bit": 1925,
      "Ġsee": 1926,
      "}^": 1927,
      "Ġcomplex": 1928,
      "Ġdivides": 1929,
      "ypot": 1930,
      "Ġad": 1931,
      "Ġconsider": 1932,
      "FF": 1933,
      "Ġ182": 1934,
      "Ġpair": 1935,
      "rable": 1936,
      "ved": 1937,
      "Ġtest": 1938,
      "ln": 1939,
      "Ġ209": 1940,
      "ĊĊĠĊĠĊ": 1941,
      "Ġ131": 1942,
      "Ġrational": 1943,
      "Ġlimit": 1944,
      "Ġknow": 1945,
      "Ġthrough": 1946,
      "Ġ147": 1947,
      "name": 1948,
      "Ġ208": 1949,
      "Ġz": 1950,
      "ercise": 1951,
      ",âĪĴ": 1952,
      "op": 1953,
      "rin": 1954,
      "Ġ420": 1955,
      "eq": 1956,
      "ountable": 1957,
      "ize": 1958,
      "},$": 1959,
      "Ġ224": 1960,
      "ĠTopolog": 1961,
      "Ġpack": 1962,
      "Ġrefer": 1963,
      "Ġ280": 1964,
      "Ġ$-": 1965,
      "ences": 1966,
      "lation": 1967,
      "ĠTrans": 1968,
      "Ġ137": 1969,
      "gon": 1970,
      "lope": 1971,
      "Ġequivalen": 1972,
      "Ġtrue": 1973,
      "ĊĠĊ": 1974,
      "ber": 1975,
      "ega": 1976,
      "CC": 1977,
      "Ġsection": 1978,
      "ress": 1979,
      "amily": 1980,
      "={": 1981,
      "-{": 1982,
      "pty": 1983,
      "Ġ228": 1984,
      "ex": 1985,
      "fty": 1986,
      "Ġconstant": 1987,
      "ĠAlso": 1988,
      "Ġexpon": 1989,
      "ĠElement": 1990,
      "fy": 1991,
      "Ġmake": 1992,
      "Ġ234": 1993,
      "efine": 1994,
      "Â°": 1995,
      "Step": 1996,
      "Ġidentity": 1997,
      "Ġpopulation": 1998,
      "Ġ255": 1999,
      "Ġi": 2000,
      "amma": 2001,
      "Ġ195": 2002,
      "140": 2003,
      "Ġdeg": 2004,
      "ath": 2005,
      "acher": 2006,
      "ĠInd": 2007,
      "over": 2008,
      "Ġreceive": 2009,
      "Ġshown": 2010,
      "closed": 2011,
      "}$,": 2012,
      "Ġ260": 2013,
      "sec": 2014,
      "Ġgre": 2015,
      "Ġour": 2016,
      "Ġnormal": 2017,
      "implies": 2018,
      "wise": 2019,
      "}}^{": 2020,
      "Ġteacher": 2021,
      "omm": 2022,
      "Ġtheorem": 2023,
      "{-": 2024,
      "cdots": 2025,
      "+{": 2026,
      "hod": 2027,
      "160": 2028,
      "ĠMapping": 2029,
      "As": 2030,
      "Ġclass": 2031,
      "Ġpartic": 2032,
      "Ġ285": 2033,
      "Ġcalcul": 2034,
      "ilon": 2035,
      "Ġ148": 2036,
      "Ġproof": 2037,
      "Ġ146": 2038,
      "Ġrepresent": 2039,
      "Ġvariables": 2040,
      "Ġlook": 2041,
      "Ġ139": 2042,
      "ĠVector": 2043,
      "Ġcoordin": 2044,
      "Ġ145": 2045,
      "Ġpacked": 2046,
      "Ġ312": 2047,
      "108": 2048,
      "closedint": 2049,
      "Ġcho": 2050,
      "Ġide": 2051,
      "Ġ340": 2052,
      "psilon": 2053,
      "min": 2054,
      "utative": 2055,
      "Ġderiv": 2056,
      "infty": 2057,
      "Ġsubgroup": 2058,
      "Ġfour": 2059,
      "Ġ215": 2060,
      "ented": 2061,
      "tan": 2062,
      "ĠUse": 2063,
      "Ġlike": 2064,
      "ick": 2065,
      "Ġradi": 2066,
      "Ġstatement": 2067,
      "partial": 2068,
      "Since": 2069,
      "istic": 2070,
      "Ġrandom": 2071,
      "Ġeither": 2072,
      "eter": 2073,
      "ann": 2074,
      "Ġabove": 2075,
      "denti": 2076,
      "Ġ315": 2077,
      "Ġq": 2078,
      "rol": 2079,
      "Ġcomplete": 2080,
      "Ġpossible": 2081,
      "Ġ+,": 2082,
      "Ġ380": 2083,
      "Ġtable": 2084,
      "*(*": 2085,
      "Ġsay": 2086,
      "hema": 2087,
      "ĠNorm": 2088,
      "Ġspec": 2089,
      "Ġbounded": 2090,
      "angent": 2091,
      "Ġ306": 2092,
      "Ġgeneral": 2093,
      "Ġless": 2094,
      "Ġend": 2095,
      "Ġ400": 2096,
      "Ġ272": 2097,
      "Ġ304": 2098,
      "ually": 2099,
      "ures": 2100,
      "ose": 2101,
      "ĠProblem": 2102,
      "*,": 2103,
      "put": 2104,
      "old": 2105,
      "Ġinverse": 2106,
      "ĠIs": 2107,
      "ĠLinear": 2108,
      "rictly": 2109,
      "Ġ213": 2110,
      "tern": 2111,
      "Ġ142": 2112,
      "To": 2113,
      "etry": 2114,
      "300": 2115,
      "Ġbecause": 2116,
      "Ġ219": 2117,
      "Ġ221": 2118,
      "otes": 2119,
      "ĠRing": 2120,
      "arr": 2121,
      "rection": 2122,
      "space": 2123,
      "Ġ319": 2124,
      "Ġhypot": 2125,
      "sel": 2126,
      "Ġstraight": 2127,
      "Ġ141": 2128,
      "ilar": 2129,
      "Ġnegative": 2130,
      "Ġobject": 2131,
      "Ġ342": 2132,
      "ality": 2133,
      "epsilon": 2134,
      "xy": 2135,
      "ĠPar": 2136,
      "Ġdistance": 2137,
      "Ġ266": 2138,
      "Ġperc": 2139,
      "Ġ238": 2140,
      "raw": 2141,
      "ĠCondition": 2142,
      "Ġsho": 2143,
      "rinci": 2144,
      "GF": 2145,
      "Ġsmalle": 2146,
      "Ġ520": 2147,
      "Ġ323": 2148,
      "240": 2149,
      "Ġ169": 2150,
      "ucture": 2151,
      "Ġ225": 2152,
      "Ġ247": 2153,
      "Ġdecimal": 2154,
      "agon": 2155,
      "Ġrate": 2156,
      "Ġ196": 2157,
      "Ġes": 2158,
      "axis": 2159,
      "}.": 2160,
      "Ġtopology": 2161,
      "]{": 2162,
      "Ġ212": 2163,
      "}-{": 2164,
      "operator": 2165,
      "Ġleast": 2166,
      "Ġsatis": 2167,
      "operatorname": 2168,
      "*)": 2169,
      "Ġdetermine": 2170,
      "inter": 2171,
      "cess": 2172,
      "Ġ214": 2173,
      "Ġcy": 2174,
      "âĪŀ}{": 2175,
      "olute": 2176,
      "not": 2177,
      "ĠSquare": 2178,
      "inomial": 2179,
      "Ġ324": 2180,
      "Ġjust": 2181,
      "Ġcenter": 2182,
      "'$": 2183,
      "Exercise": 2184,
      "Ġ720": 2185,
      "Ġbeen": 2186,
      "Ġop": 2187,
      "Ġincre": 2188,
      "Ġ264": 2189,
      "Ġconf": 2190,
      "acter": 2191,
      "Ġ211": 2192,
      "Ġ217": 2193,
      "osure": 2194,
      "Ġ149": 2195,
      "aw": 2196,
      "mod": 2197,
      "Ġmon": 2198,
      "Ġalgebraic": 2199,
      ")}{": 2200,
      "crib": 2201,
      "Ġbasis": 2202,
      "Re": 2203,
      "Ġ189": 2204,
      "Ġ416": 2205,
      "Ġ218": 2206,
      "Ġ418": 2207,
      "solute": 2208,
      "ĠAs": 2209,
      "Ġ513": 2210,
      "_{>": 2211,
      "by": 2212,
      "Ġ155": 2213,
      "Ġinfinite": 2214,
      "asing": 2215,
      "Ġcoef": 2216,
      "Ġsign": 2217,
      "Ġnotation": 2218,
      "Ġvectors": 2219,
      "Ġ510": 2220,
      "Ġcons": 2221,
      "ĠProperty": 2222,
      "}}_{": 2223,
      "ĠSum": 2224,
      "Ġ161": 2225,
      "rary": 2226,
      "urable": 2227,
      "Ġrect": 2228,
      "Ġ430": 2229,
      "Ġnext": 2230,
      "Ġ415": 2231,
      "Ġ414": 2232,
      "Ġrec": 2233,
      "200": 2234,
      "hesis": 2235,
      "col": 2236,
      "126": 2237,
      "Ġ256": 2238,
      "tersection": 2239,
      "How": 2240,
      "hline": 2241,
      "Ġ516": 2242,
      "metric": 2243,
      "Ġ413": 2244,
      "rees": 2245,
      "LL": 2246,
      "tesian": 2247,
      "ror": 2248,
      "Ġ480": 2249,
      "ĠSubset": 2250,
      "An": 2251,
      "Ġslope": 2252,
      "Ġac": 2253,
      "Ġ316": 2254,
      "Ġpres": 2255,
      "Ġem": 2256,
      "hn": 2257,
      "ectively": 2258,
      "comp": 2259,
      "Ġfeet": 2260,
      "Ġev": 2261,
      ")-": 2262,
      "ounded": 2263,
      "Ġshould": 2264,
      "face": 2265,
      "Ġhere": 2266,
      "Ġcurve": 2267,
      "lary": 2268,
      "array": 2269,
      "cal": 2270,
      "Ġwhe": 2271,
      "Ġ624": 2272,
      "ĠClosed": 2273,
      "ors": 2274,
      "Ġ518": 2275,
      "ategory": 2276,
      "Ġ336": 2277,
      "rollary": 2278,
      "Ġiff": 2279,
      "ĠCo": 2280,
      "Ġlines": 2281,
      "Ġ164": 2282,
      "BC": 2283,
      "Ġins": 2284,
      "Ġbase": 2285,
      "Ġ616": 2286,
      "Ġindependent": 2287,
      "add": 2288,
      "ĠMe": 2289,
      "attice": 2290,
      "Ġnecess": 2291,
      "ources": 2292,
      "Ġsem": 2293,
      "bitrary": 2294,
      "Ġ310": 2295,
      "ĠGraph": 2296,
      "Ġ159": 2297,
      "tices": 2298,
      "Ġmetric": 2299,
      "lect": 2300,
      "Ġ936": 2301,
      "rime": 2302,
      "aracter": 2303,
      "Ġ317": 2304,
      "crete": 2305,
      "Ġ158": 2306,
      "Ġ318": 2307,
      "Ġ${(": 2308,
      "tens": 2309,
      "Ġquad": 2310,
      "Ġu": 2311,
      "dinal": 2312,
      "iles": 2313,
      "112": 2314,
      "Ġ816": 2315,
      "ense": 2316,
      "Ġ174": 2317,
      "Ġques": 2318,
      "Ġcompact": 2319,
      "ĠIt": 2320,
      "Ġnatural": 2321,
      "}^{âĪĴ": 2322,
      "Ġ810": 2323,
      "Ġed": 2324,
      "ĠSequence": 2325,
      "Ġ313": 2326,
      "Ġ175": 2327,
      "ĠâĵĴ": 2328,
      "cup": 2329,
      "ible": 2330,
      "Ġ172": 2331,
      "Some": 2332,
      "ĠâĢ": 2333,
      "Ġ820": 2334,
      "ron": 2335,
      "Ġ151": 2336,
      "Ġsolutions": 2337,
      "Ġ517": 2338,
      "ell": 2339,
      "Ġ330": 2340,
      "oid": 2341,
      "Ġ730": 2342,
      "Ġ519": 2343,
      "Ġ819": 2344,
      "Ġ924": 2345,
      "position": 2346,
      "cap": 2347,
      "ĠEr": 2348,
      "bor": 2349,
      "ucl": 2350,
      "dots": 2351,
      "ish": 2352,
      "Ġra": 2353,
      "Ġapproxim": 2354,
      "ĠIdenti": 2355,
      "otice": 2356,
      "Ġwri": 2357,
      "alf": 2358,
      "Ġexp": 2359,
      "ĠPoint": 2360,
      "Ġwell": 2361,
      "Ġfact": 2362,
      "ĠInter": 2363,
      "Ġ184": 2364,
      "Ġ612": 2365,
      "Ġdenotes": 2366,
      "tics": 2367,
      "ĠOpen": 2368,
      "Ġoperation": 2369,
      "angular": 2370,
      "Now": 2371,
      "Ġparticular": 2372,
      "Ġ314": 2373,
      "^*": 2374,
      "Ġ410": 2375,
      "Ġ163": 2376,
      "ĠEquivalen": 2377,
      "Ġmaxim": 2378,
      "get": 2379,
      "Use": 2380,
      "ions": 2381,
      "Ġmethod": 2382,
      "Ġ450": 2383,
      "ĠContinuous": 2384,
      "--": 2385,
      "Ġ417": 2386,
      "Ġ511": 2387,
      "Ġ500": 2388,
      "nt": 2389,
      "Ġ207": 2390,
      "Ġ910": 2391,
      "Ġ178": 2392,
      "Ġmathema": 2393,
      "ype": 2394,
      "Ġ504": 2395,
      "Ġsince": 2396,
      "Ġradius": 2397,
      "Ġ913": 2398,
      "Ġ157": 2399,
      "Therefore": 2400,
      "stitute": 2401,
      "Ġdevi": 2402,
      "),$": 2403,
      "ĠConver": 2404,
      "Ġdisc": 2405,
      "=\"": 2406,
      "Ġ920": 2407,
      "Ġseen": 2408,
      "cepts": 2409,
      "Ġspaces": 2410,
      "Ġ918": 2411,
      "Ġ919": 2412,
      "rho": 2413,
      "}}{{": 2414,
      "Ġ619": 2415,
      "Ġ412": 2416,
      "ĠPower": 2417,
      "Ġ817": 2418,
      "Ġ540": 2419,
      "lt": 2420,
      "rith": 2421,
      "Ġ231": 2422,
      "ton": 2423,
      "}^{âĢ²}(": 2424,
      "Consider": 2425,
      "Ġpercent": 2426,
      "Ġfactors": 2427,
      "Ġrespectively": 2428,
      "Ġ615": 2429,
      "Ġ617": 2430,
      "Ġ512": 2431,
      "Ġ524": 2432,
      "Ġcheck": 2433,
      "Ġprim": 2434,
      "ĠSolve": 2435,
      "Ġ600": 2436,
      "Ġ311": 2437,
      "colvector": 2438,
      "ĠAlgebra": 2439,
      "rices": 2440,
      "rithme": 2441,
      "Ġ824": 2442,
      "Ġ194": 2443,
      "Ġassum": 2444,
      "fect": 2445,
      "Ġacc": 2446,
      "led": 2447,
      "Ġ940": 2448,
      "Ġinc": 2449,
      "ero": 2450,
      "ighbor": 2451,
      "self": 2452,
      "(-": 2453,
      "Ġ530": 2454,
      "Ġanother": 2455,
      "Ġproperty": 2456,
      "ars": 2457,
      "Ġ620": 2458,
      "port": 2459,
      "Ġ186": 2460,
      "Ġ166": 2461,
      "Ġ177": 2462,
      "uzzles": 2463,
      "Ġwhether": 2464,
      "Ġ719": 2465,
      "Ġalign": 2466,
      "Ġfraction": 2467,
      "Ġ711": 2468,
      "ings": 2469,
      "Ġ188": 2470,
      "uth": 2471,
      "Ġ836": 2472,
      "igroup": 2473,
      "Ġ432": 2474,
      "soci": 2475,
      "Ġ/": 2476,
      "Ġparalle": 2477,
      "omomorphism": 2478,
      "ratic": 2479,
      "ĠUsing": 2480,
      "âĮ©": 2481,
      "âĮª": 2482,
      "Ġ710": 2483,
      "Ġ167": 2484,
      "itial": 2485,
      "Ġfound": 2486,
      "Ġcondition": 2487,
      "Ġtransformation": 2488,
      "ighborho": 2489,
      "uf": 2490,
      "Ġ818": 2491,
      "oriz": 2492,
      "idence": 2493,
      "Ġ390": 2494,
      "Ġ378": 2495,
      "Ġ717": 2496,
      "Ġ712": 2497,
      "Ġdivis": 2498,
      "ĠComm": 2499,
      "Ġ714": 2500,
      "yle": 2501,
      "ameter": 2502,
      "=-": 2503,
      "Ġcorres": 2504,
      "ivers": 2505,
      "Ġ173": 2506,
      "Ġ276": 2507,
      "&&": 2508,
      "Ġ232": 2509,
      "olume": 2510,
      "Ġnew": 2511,
      "Ġbeing": 2512,
      "Ġ289": 2513,
      "ization": 2514,
      "Ġ911": 2515,
      "Ġsup": 2516,
      "di": 2517,
      "ature": 2518,
      "arith": 2519,
      "ĠAb": 2520,
      "Ġday": 2521,
      "Ġmiles": 2522,
      "Ġheight": 2523,
      "Ġhypothesis": 2524,
      "orizon": 2525,
      "Ġinformation": 2526,
      "ĠFinite": 2527,
      "triangle": 2528,
      "Ġ613": 2529,
      "Ġ408": 2530,
      "arithm": 2531,
      "oted": 2532,
      "Ġ813": 2533,
      "Ġsources": 2534,
      "Ġamount": 2535,
      "ĠSp": 2536,
      "Ġge": 2537,
      "Ġrule": 2538,
      "Ġ411": 2539,
      "Ġ368": 2540,
      "Ġ350": 2541,
      "Ġyears": 2542,
      "Ġ419": 2543,
      "Ġ812": 2544,
      "Ġ203": 2545,
      "Ġchange": 2546,
      "âĢĿ": 2547,
      "Ġ258": 2548,
      "Ġ230": 2549,
      "Ġ384": 2550,
      "Ġ915": 2551,
      "Ġ916": 2552,
      "ific": 2553,
      "Ġ396": 2554,
      "400": 2555,
      "Co": 2556,
      "Ġ246": 2557,
      "Ġ792": 2558,
      "phic": 2559,
      "Ġunits": 2560,
      "Ġimplies": 2561,
      "Ġ756": 2562,
      "Ġ199": 2563,
      "Ġstructure": 2564,
      "BB": 2565,
      "jective": 2566,
      "Ġ294": 2567,
      "Ġ308": 2568,
      "ĠMatrix": 2569,
      "minus": 2570,
      "idean": 2571,
      "________": 2572,
      "uclidean": 2573,
      "Ġ614": 2574,
      "Ġdescrib": 2575,
      "Ġ275": 2576,
      "uden": 2577,
      "echn": 2578,
      "Ġexpressed": 2579,
      "udeney": 2580,
      "Ġ912": 2581,
      "Ġ185": 2582,
      "Ġdefine": 2583,
      "Ġstyle": 2584,
      "ĠDudeney": 2585,
      "Ġ713": 2586,
      "Ġ243": 2587,
      "Ġ672": 2588,
      "Ġcannot": 2589,
      "Ġ514": 2590,
      "Ġ715": 2591,
      "ĠHen": 2592,
      "Ġ325": 2593,
      "ĠâĢĵ": 2594,
      "Ġ930": 2595,
      "{$": 2596,
      "orizontal": 2597,
      "Ġ468": 2598,
      "Ġ364": 2599,
      "Ġ250": 2600,
      "Ġ800": 2601,
      "plain": 2602,
      "Ġhours": 2603,
      "Ġevaluate": 2604,
      "ĊĠ": 2605,
      "Ġerror": 2606,
      "Ġ914": 2607,
      "tex": 2608,
      "round": 2609,
      "Ġ476": 2610,
      "prod": 2611,
      "ĠCompact": 2612,
      "Ġmodel": 2613,
      "Ġsurface": 2614,
      "Ġ248": 2615,
      "nest": 2616,
      "Ġ242": 2617,
      "ĠFunctions": 2618,
      "ĠHenry": 2619,
      "Ġph": 2620,
      "Ġ361": 2621,
      "Ġ296": 2622,
      "ĠErnest": 2623,
      "Ġ205": 2624,
      "Ġconverges": 2625,
      "Ġangles": 2626,
      "Ġmost": 2627,
      "Ġpath": 2628,
      "ĠCar": 2629,
      "Ġ183": 2630,
      "Ġdivision": 2631,
      "Ġ197": 2632,
      "Ġ352": 2633,
      "}}=": 2634,
      "Ġ618": 2635,
      "Ġ576": 2636,
      "Ġ830": 2637,
      "Ġ392": 2638,
      "setminus": 2639,
      "arn": 2640,
      "Ġshe": 2641,
      "]$": 2642,
      "Ġ515": 2643,
      "Ġ$[": 2644,
      "dy": 2645,
      "riction": 2646,
      "akes": 2647,
      "Ġ261": 2648,
      "Ġ290": 2649,
      "Ġ179": 2650,
      "verage": 2651,
      "Ġ648": 2652,
      "omorphic": 2653,
      "ird": 2654,
      "Ġ560": 2655,
      "mega": 2656,
      "Ġaxiom": 2657,
      "Ġ718": 2658,
      "Ġexist": 2659,
      "Ġsymbol": 2660,
      "Ġ811": 2661,
      "ĠSuppose": 2662,
      "Ġsimple": 2663,
      "Ġmod": 2664,
      "Ġ297": 2665,
      "Ġ193": 2666,
      "Ġword": 2667,
      "Ġ405": 2668,
      "Ġ259": 2669,
      "Ġoriginal": 2670,
      "Ġ815": 2671,
      "Ġbelow": 2672,
      "ĠRelation": 2673,
      "til": 2674,
      "Ġ286": 2675,
      "Ġvertices": 2676,
      "Omega": 2677,
      "Ġ660": 2678,
      "Ġodd": 2679,
      "Ġ440": 2680,
      "Ġ610": 2681,
      "Ġ253": 2682,
      "Ġcommutative": 2683,
      "Ġindex": 2684,
      "Ġequivalent": 2685,
      "Ġ917": 2686,
      "Ġ273": 2687,
      "osition": 2688,
      "Ġ840": 2689,
      "Ġ279": 2690,
      "istake": 2691,
      "ination": 2692,
      "Ġ611": 2693,
      "Ġroot": 2694,
      "ĠPl": 2695,
      "ank": 2696,
      "Ġ495": 2697,
      "div": 2698,
      "apter": 2699,
      "Ġ864": 2700,
      "Ġ704": 2701,
      "Ġideal": 2702,
      "Ġ716": 2703,
      "ically": 2704,
      "adding": 2705,
      "Ġregion": 2706,
      "ross": 2707,
      "Ġeas": 2708,
      "Ġdirection": 2709,
      "open": 2710,
      "Ġ357": 2711,
      "Ġ348": 2712,
      "equality": 2713,
      "padding": 2714,
      "Ġ448": 2715,
      "ĠOne": 2716,
      "ities": 2717,
      "Ġdenoted": 2718,
      "Ġ257": 2719,
      "Ġ744": 2720,
      "Ċĉĉ": 2721,
      "quences": 2722,
      "Ġ462": 2723,
      "Ġrequ": 2724,
      "âĵĳ": 2725,
      "Ġ456": 2726,
      "Ġ399": 2727,
      "gent": 2728,
      "Ġ486": 2729,
      "power": 2730,
      "tend": 2731,
      "Ġ299": 2732,
      "orphism": 2733,
      "Ġ425": 2734,
      "Ġ441": 2735,
      "Ġ191": 2736,
      "gamma": 2737,
      "Ġ460": 2738,
      "Ġcos": 2739,
      "Ġ594": 2740,
      "ĠNe": 2741,
      "Ġspeed": 2742,
      "ĠRec": 2743,
      "Ġ375": 2744,
      "Ġ814": 2745,
      "Ġ475": 2746,
      "clus": 2747,
      "Ġ265": 2748,
      "Ġ$(âĪĴ": 2749,
      "ighborhood": 2750,
      "ner": 2751,
      "tten": 2752,
      "Ġag": 2753,
      "Ġ369": 2754,
      "Ġ459": 2755,
      "Ġ522": 2756,
      "Ġ206": 2757,
      "lyeq": 2758,
      "Ġdraw": 2759,
      "ĠEquation": 2760,
      "ccurlyeq": 2761,
      "sim": 2762,
      "Ġ181": 2763,
      "Ġ372": 2764,
      "Ġcould": 2765,
      "Ġ236": 2766,
      "Ġ328": 2767,
      "yper": 2768,
      "ork": 2769,
      "ĠComplex": 2770,
      "ier": 2771,
      "Ġ435": 2772,
      "inary": 2773,
      "ĠTwo": 2774,
      "ĠWrite": 2775,
      "Ġref": 2776,
      "Ġ237": 2777,
      "Ġ465": 2778,
      "ately": 2779,
      "Ġ267": 2780,
      "Ġ900": 2781,
      "ough": 2782,
      "Ġ385": 2783,
      "Ġ570": 2784,
      "Ġ528": 2785,
      "Ġ245": 2786,
      "Ġtra": 2787,
      "Ġ222": 2788,
      "ring": 2789,
      "Ġ244": 2790,
      "Ġ492": 2791,
      "Ġtw": 2792,
      "Ġ630": 2793,
      "ĠDis": 2794,
      "unct": 2795,
      "Ġ588": 2796,
      "Ġinv": 2797,
      "Ġ750": 2798,
      "Ġarbitrary": 2799,
      "Ġquestion": 2800,
      "its": 2801,
      "Ġdegree": 2802,
      "Ġ846": 2803,
      "Ġapply": 2804,
      "ĠRule": 2805,
      "Ġ376": 2806,
      "ĠTheory": 2807,
      "Ġ295": 2808,
      "Ġ374": 2809,
      "Ġ684": 2810,
      "Ġ960": 2811,
      "tension": 2812,
      "ĠFactor": 2813,
      "Ġ343": 2814,
      "Ġ780": 2815,
      "Ġsatisf": 2816,
      "Ġen": 2817,
      "Ġ249": 2818,
      "Ġ233": 2819,
      "Ġ235": 2820,
      "Ġappe": 2821,
      "jug": 2822,
      "joint": 2823,
      "ser": 2824,
      "Ġsmallest": 2825,
      "powerset": 2826,
      "Ġinitial": 2827,
      "Ġ345": 2828,
      "preccurlyeq": 2829,
      "pendic": 2830,
      "Ġ438": 2831,
      "Ġunique": 2832,
      "Ġaverage": 2833,
      "ĠTopology": 2834,
      "intercept": 2835,
      "Ġaxis": 2836,
      "Ġ640": 2837,
      "agonal": 2838,
      "Ġ356": 2839,
      "Ġproperties": 2840,
      "forall": 2841,
      "Ġ241": 2842,
      "Ġ442": 2843,
      "Ġ377": 2844,
      "class": 2845,
      "ĠâĢľ": 2846,
      "entry": 2847,
      "Ġ227": 2848,
      "Ġ455": 2849,
      "}={": 2850,
      "pendicular": 2851,
      "Ġconstr": 2852,
      "Ġ423": 2853,
      "Ġ680": 2854,
      "ĠGener": 2855,
      "ĠWh": 2856,
      "ĠAp": 2857,
      "Ġ322": 2858,
      "Ġ966": 2859,
      "Ġsize": 2860,
      "Ġred": 2861,
      "Ġ239": 2862,
      "elian": 2863,
      "Ġ268": 2864,
      "ĠSee": 2865,
      "posite": 2866,
      "ced": 2867,
      "Ġpropor": 2868,
      "ĠTriangle": 2869,
      "..": 2870,
      "Ġ201": 2871,
      "Ġ284": 2872,
      "Ġcontext": 2873,
      "Ġcorrespon": 2874,
      "Ġoften": 2875,
      "{âĪŀ}{": 2876,
      "Ġher": 2877,
      "Ġ532": 2878,
      "Ġgreater": 2879,
      "Ġtangent": 2880,
      "vex": 2881,
      "Sub": 2882,
      "Ġwords": 2883,
      "Ġvolume": 2884,
      "ĠMetric": 2885,
      "Ġ351": 2886,
      "Ġdeviation": 2887,
      "Ġ770": 2888,
      "wed": 2889,
      "Ġ226": 2890,
      "Ġ546": 2891,
      "Ġfig": 2892,
      "Ġ282": 2893,
      "Ġ696": 2894,
      "Ġabsolute": 2895,
      "Ġ636": 2896,
      "Ġ344": 2897,
      ".*": 2898,
      "Ġ768": 2899,
      "empty": 2900,
      "Ġdetermin": 2901,
      "Ġ254": 2902,
      "Ġ784": 2903,
      "Ġ858": 2904,
      "Corollary": 2905,
      "late": 2906,
      "Ġ263": 2907,
      "urn": 2908,
      "ermut": 2909,
      "ĠSets": 2910,
      "Ġrequi": 2911,
      "ĠAngle": 2912,
      "150": 2913,
      "Ġunity": 2914,
      "Ġ229": 2915,
      "Ġnormed": 2916,
      "Ġ333": 2917,
      "iem": 2918,
      "digit": 2919,
      "au": 2920,
      "Ġ494": 2921,
      "anti": 2922,
      "Ġ287": 2923,
      "Ġ567": 2924,
      "Ġ945": 2925,
      "Ġ274": 2926,
      "Ġ650": 2927,
      "CD": 2928,
      "aid": 2929,
      "family": 2930,
      "vial": 2931,
      "Ġ223": 2932,
      "Ġ655": 2933,
      "Ġ855": 2934,
      "Ġwritten": 2935,
      "appro": 2936,
      "ink": 2937,
      "olar": 2938,
      "Ġ483": 2939,
      "ufficient": 2940,
      "imum": 2941,
      "alys": 2942,
      "iform": 2943,
      "Ġ305": 2944,
      "Ġ444": 2945,
      "Ġ693": 2946,
      "ib": 2947,
      "utes": 2948,
      "Ġ952": 2949,
      "ĠZero": 2950,
      "Ġdimension": 2951,
      "Ġ283": 2952,
      "Ġ850": 2953,
      "gether": 2954,
      "Ġmultipl": 2955,
      "Ġ338": 2956,
      "Ġ558": 2957,
      "Ġnull": 2958,
      "Ġ748": 2959,
      "Ġ728": 2960,
      "Ġ391": 2961,
      "Ġitself": 2962,
      "ĠInverse": 2963,
      "ild": 2964,
      "Ġ595": 2965,
      "Ġ880": 2966,
      "Ġ891": 2967,
      "Ġcoordinates": 2968,
      "ĠEquivalence": 2969,
      "iemann": 2970,
      "ration": 2971,
      "Ġ690": 2972,
      "Ġ269": 2973,
      "Ġ496": 2974,
      "ĠProblems": 2975,
      "ĠWhen": 2976,
      "ications": 2977,
      "Ġthose": 2978,
      "Ġ291": 2979,
      "Ġ426": 2980,
      "Ġ590": 2981,
      "Ġcub": 2982,
      "order": 2983,
      "Ġmag": 2984,
      "Ġ339": 2985,
      "ĠIntegral": 2986,
      "Ġrest": 2987,
      "Ġ329": 2988,
      "Ġ539": 2989,
      "ĠDiffer": 2990,
      "Ġ470": 2991,
      "Ġ580": 2992,
      "Ġ337": 2993,
      "Ġobtain": 2994,
      "Ġ497": 2995,
      "yperbol": 2996,
      "place": 2997,
      "Ġ277": 2998,
      "Ġ292": 2999,
      "Ġ371": 3000,
      "Ġ434": 3001,
      "Ġ592": 3002,
      "Ġ278": 3003,
      "Ġ568": 3004,
      "But": 3005,
      "oin": 3006,
      "Ġhorizontal": 3007,
      "Ġ262": 3008,
      "Ġ828": 3009,
      "Ġ544": 3010,
      "Ġ736": 3011,
      "ock": 3012,
      "delta": 3013,
      "overline": 3014,
      "Ġ609": 3015,
      "Ġ202": 3016,
      "Ġ551": 3017,
      "rm": 3018,
      "Ġ347": 3019,
      "Ġcoefficient": 3020,
      "When": 3021,
      "iod": 3022,
      "Ġcre": 3023,
      "Ġ493": 3024,
      "ĠVari": 3025,
      "Ġsimilar": 3026,
      "Ġact": 3027,
      "Ġ395": 3028,
      "Ġ469": 3029,
      "Ġ552": 3030,
      "128": 3031,
      "Ġ606": 3032,
      "Ġ464": 3033,
      "Ġpe": 3034,
      "asses": 3035,
      "Ġ$|": 3036,
      "Ġfl": 3037,
      "Ġ406": 3038,
      "Ġ550": 3039,
      "Ġ644": 3040,
      "Ġ896": 3041,
      "Ġ402": 3042,
      "Ġ331": 3043,
      "Ġ424": 3044,
      "Ġhel": 3045,
      "alysis": 3046,
      "Ġ293": 3047,
      "Ġ429": 3048,
      "Ġ574": 3049,
      "},{": 3050,
      "Ġvertex": 3051,
      "Ġcoun": 3052,
      "Ġ370": 3053,
      "Ġ765": 3054,
      "Ġ950": 3055,
      "Find": 3056,
      "ole": 3057,
      "Ġtheory": 3058,
      "Ġdown": 3059,
      "Ġ307": 3060,
      "Ġ366": 3061,
      "Ġwithout": 3062,
      "Ġ746": 3063,
      "Ġ990": 3064,
      "approx": 3065,
      "Ġ709": 3066,
      "Ġ882": 3067,
      "pmatrix": 3068,
      "Ġ388": 3069,
      "ĠCartesian": 3070,
      "Ġ354": 3071,
      "However": 3072,
      "Ġhalf": 3073,
      "Ġ656": 3074,
      "Ġstrictly": 3075,
      "ĠPer": 3076,
      "Ġ362": 3077,
      "Ġ639": 3078,
      "Ġ593": 3079,
      "âĢĸ": 3080,
      "ost": 3081,
      "Ġ666": 3082,
      "ĠAxiom": 3083,
      "Ġ776": 3084,
      "value": 3085,
      "Ġ735": 3086,
      "Ġisomorphism": 3087,
      "Ġ968": 3088,
      "Ġ738": 3089,
      "Comp": 3090,
      "ometry": 3091,
      "Ġoccur": 3092,
      "Ġ403": 3093,
      "Ġ605": 3094,
      "Ġ623": 3095,
      "Ġ353": 3096,
      "Ġ760": 3097,
      "Ġ397": 3098,
      "Ġ847": 3099,
      "omb": 3100,
      "ĠMod": 3101,
      "ouble": 3102,
      "135": 3103,
      "Ġ335": 3104,
      "Ġ490": 3105,
      "Ġ783": 3106,
      "Ġ621": 3107,
      "Ġ332": 3108,
      "Ġ774": 3109,
      "sp": 3110,
      "uts": 3111,
      "big": 3112,
      "Ġ484": 3113,
      "Ġ564": 3114,
      "Ġ643": 3115,
      "ĠTherefore": 3116,
      "Ġstudy": 3117,
      "ia": 3118,
      "Ġ702": 3119,
      "oot": 3120,
      "Ġ466": 3121,
      "Ġ972": 3122,
      "Ġexponential": 3123,
      "Ġlast": 3124,
      "ĠIm": 3125,
      "Ġcomput": 3126,
      "Ġ\\,}_": 3127,
      "no": 3128,
      "Ġ474": 3129,
      "Ġ873": 3130,
      "Ġposition": 3131,
      "vious": 3132,
      "Ġfive": 3133,
      "105": 3134,
      "Ġ386": 3135,
      "Ġ777": 3136,
      "Ġ928": 3137,
      "vee": 3138,
      "Ġ549": 3139,
      "Ġrelations": 3140,
      "143": 3141,
      "Ġ281": 3142,
      "Ġ341": 3143,
      "Ġ501": 3144,
      "inner": 3145,
      "Ġ899": 3146,
      "ĠFirst": 3147,
      "Ġ409": 3148,
      "Ġ837": 3149,
      "Ġ525": 3150,
      "ulas": 3151,
      "Ġ365": 3152,
      "Ġ428": 3153,
      "Ġ637": 3154,
      "Ġ647": 3155,
      "Ġ884": 3156,
      "asis": 3157,
      "Ġ302": 3158,
      "Ġ472": 3159,
      "ĠIntegers": 3160,
      "Ġ449": 3161,
      "Ġ572": 3162,
      "Ġ658": 3163,
      "Ġ856": 3164,
      "ren": 3165,
      "Ġ327": 3166,
      "Ġ569": 3167,
      "Ġ387": 3168,
      "Ġ688": 3169,
      "Ġ607": 3170,
      "133": 3171,
      "Ġ868": 3172,
      "Ġlevel": 3173,
      ",\\,": 3174,
      "Ġ367": 3175,
      "Ġ608": 3176,
      "Ġ721": 3177,
      "Ġ700": 3178,
      "Ġ467": 3179,
      "Ġ686": 3180,
      "Ġ955": 3181,
      "Ġ740": 3182,
      "Ġ875": 3183,
      "egment": 3184,
      "gence": 3185,
      "Ġarithme": 3186,
      "Ġ901": 3187,
      "Ġ754": 3188,
      "Ġ675": 3189,
      "Ġ860": 3190,
      "Ġvertical": 3191,
      "scr": 3192,
      "Ġ?": 3193,
      "rem": 3194,
      "Ġ321": 3195,
      "Ġ463": 3196,
      "Ġ798": 3197,
      "mathscr": 3198,
      "ful": 3199,
      "pm": 3200,
      "Ġ729": 3201,
      "Ġ477": 3202,
      "Ġ506": 3203,
      "Ġ697": 3204,
      "Ġbi": 3205,
      "Ġ679": 3206,
      "agram": 3207,
      "Ġ363": 3208,
      "Ġ503": 3209,
      "Ġ507": 3210,
      "Ġ801": 3211,
      "Ġ555": 3212,
      "Ġ665": 3213,
      "Ġ436": 3214,
      "ople": 3215,
      "ĠEuclidean": 3216,
      "Ġ389": 3217,
      "Ġsepar": 3218,
      "rinciple": 3219,
      "Ġ473": 3220,
      "Ġ862": 3221,
      "Ġ845": 3222,
      "rep": 3223,
      "Ġ301": 3224,
      "Ġ848": 3225,
      "Ġ876": 3226,
      "Ġderivative": 3227,
      "Ġ458": 3228,
      "Ġalong": 3229,
      "Ġ584": 3230,
      "Ġ407": 3231,
      "Ġ795": 3232,
      "Multiply": 3233,
      "]**": 3234,
      "Ġ309": 3235,
      "Ġ535": 3236,
      "ĠTh": 3237,
      "Ġstatis": 3238,
      "Ġ649": 3239,
      "Ġ694": 3240,
      "Ġmatrices": 3241,
      "ĠMeas": 3242,
      "Ġ382": 3243,
      "Ġ759": 3244,
      "Ġ999": 3245,
      "HH": 3246,
      "ave": 3247,
      "Ġtechn": 3248,
      "ways": 3249,
      "136": 3250,
      "Ġ394": 3251,
      "Ġ667": 3252,
      "ĠIde": 3253,
      "104": 3254,
      "Ġ909": 3255,
      "Ġorigin": 3256,
      "ified": 3257,
      "ĠExamples": 3258,
      "Ġ393": 3259,
      "Ġ451": 3260,
      "Ġ561": 3261,
      "Ġ565": 3262,
      "Ġ664": 3263,
      "Ġ874": 3264,
      "Ġsubspace": 3265,
      "Ġ**[": 3266,
      "Ġ585": 3267,
      "Ġ983": 3268,
      "igned": 3269,
      "Ġ326": 3270,
      "Ġ668": 3271,
      "Ġ682": 3272,
      "Ġ536": 3273,
      "hi": 3274,
      "Ġ579": 3275,
      "Ġ755": 3276,
      "Ġ980": 3277,
      "Ġprov": 3278,
      "Ġ355": 3279,
      "Ġ725": 3280,
      "Ġ781": 3281,
      "uzzle": 3282,
      "Ġ427": 3283,
      "Ġ578": 3284,
      "Ġ534": 3285,
      "Ġ932": 3286,
      "clusion": 3287,
      "Ġ632": 3288,
      "Ġ878": 3289,
      "Ġ452": 3290,
      "Ġ852": 3291,
      "Ġ642": 3292,
      "Ġ753": 3293,
      "Ġ674": 3294,
      "360": 3295,
      "Ġ948": 3296,
      "be": 3297,
      "Ġ577": 3298,
      "Ġ657": 3299,
      "Ġ597": 3300,
      "Ġsquares": 3301,
      "Ġ488": 3302,
      "umber": 3303,
      "Ġrespect": 3304,
      "ixed": 3305,
      "cases": 3306,
      "Ġ897": 3307,
      "117": 3308,
      "valued": 3309,
      "Ġ602": 3310,
      "Ġ529": 3311,
      "Ġ894": 3312,
      "Ġrectangle": 3313,
      "Ġ251": 3314,
      "Ġ701": 3315,
      "Ġ806": 3316,
      "stitu": 3317,
      "ooth": 3318,
      "algebra": 3319,
      "119": 3320,
      "Ġ545": 3321,
      "Ġ596": 3322,
      "ĠSym": 3323,
      "Ġ582": 3324,
      "Ġ975": 3325,
      "Ġmed": 3326,
      "Ġ583": 3327,
      "Ġ925": 3328,
      "clic": 3329,
      "Ġ705": 3330,
      "Ġ669": 3331,
      "Ġ786": 3332,
      "Ġ670": 3333,
      "Ġ505": 3334,
      "Ġ893": 3335,
      "Ġ895": 3336,
      "Ġ946": 3337,
      "Ġ825": 3338,
      "Ġ581": 3339,
      "Ġ731": 3340,
      "Ġ708": 3341,
      "Ġ573": 3342,
      "Ġ749": 3343,
      "Ġ793": 3344,
      "Ġresults": 3345,
      "iction": 3346,
      "Ġ804": 3347,
      "Ġ771": 3348,
      "Ġ905": 3349,
      "Ġ870": 3350,
      "âĵĲ": 3351,
      "Ġ726": 3352,
      "Ġ298": 3353,
      "Ġ447": 3354,
      "Ġ627": 3355,
      "Ġ943": 3356,
      "}({": 3357,
      "Ġ743": 3358,
      "uri": 3359,
      "Ġ401": 3360,
      "Ġ404": 3361,
      "Ġ547": 3362,
      "Ġ851": 3363,
      "ĠInf": 3364,
      "Ġ635": 3365,
      "Ġ843": 3366,
      "Ġ849": 3367,
      "Ġ794": 3368,
      "Ġ944": 3369,
      "Ġ888": 3370,
      "Ġquanti": 3371,
      "Ġ445": 3372,
      "Ġ553": 3373,
      "Ġ531": 3374,
      "Ġthird": 3375,
      "tio": 3376,
      "Ġ832": 3377,
      "Ġ834": 3378,
      "Ġ683": 3379,
      "Ġ678": 3380,
      "Ġpeople": 3381,
      "Ġconnected": 3382,
      "Ġ443": 3383,
      "Ġ645": 3384,
      "Ġ902": 3385,
      "Ġ589": 3386,
      "Ġ271": 3387,
      "Ġ439": 3388,
      "Ġ732": 3389,
      "Ġtype": 3390,
      "Ġ349": 3391,
      "Ġ787": 3392,
      "Ġ961": 3393,
      "Ġ976": 3394,
      "Ġindic": 3395,
      "Ġ482": 3396,
      "Ġ533": 3397,
      "ru": 3398,
      "Ġ381": 3399,
      "Ġ775": 3400,
      "Ġ752": 3401,
      "Ġ984": 3402,
      "Ġ987": 3403,
      "Ġ487": 3404,
      "Ġ453": 3405,
      "Ġ457": 3406,
      "ĠYou": 3407,
      "dt": 3408,
      "Ġfre": 3409,
      "Ġ654": 3410,
      "Ġ437": 3411,
      "Ġ677": 3412,
      "Ġ954": 3413,
      "Ġprove": 3414,
      "stan": 3415,
      "Ġ646": 3416,
      "Ġ604": 3417,
      "Ġ887": 3418,
      "Ġ796": 3419,
      "Ġ835": 3420,
      "eqclass": 3421,
      "Ġopposite": 3422,
      "Ġ724": 3423,
      "Ġ651": 3424,
      "Ġ431": 3425,
      "Ġ790": 3426,
      "Ġ931": 3427,
      "ĠVal": 3428,
      "Ġ421": 3429,
      "Ġ422": 3430,
      "Ġ563": 3431,
      "Ġ853": 3432,
      "Ġtogether": 3433,
      "Ġ303": 3434,
      "Ġ358": 3435,
      "Ġ454": 3436,
      "Ġ631": 3437,
      "Ġ499": 3438,
      "Ġforms": 3439,
      "Ġperpendicular": 3440,
      "130": 3441,
      "Ġ803": 3442,
      "Ġ779": 3443,
      "Ġ822": 3444,
      "unctor": 3445,
      "Ġ603": 3446,
      "Ġ734": 3447,
      "ĠSim": 3448,
      "Ġ489": 3449,
      "Ġ661": 3450,
      "Ġ652": 3451,
      "Ġ969": 3452,
      "ox": 3453,
      "vdots": 3454,
      "ental": 3455,
      "Ġ379": 3456,
      "ĠTopological": 3457,
      "Ġ346": 3458,
      "Ġ890": 3459,
      "Ġ898": 3460,
      "Ġ841": 3461,
      "Ġ591": 3462,
      "Ġ699": 3463,
      "ished": 3464,
      "ĠAr": 3465,
      "Ġprod": 3466,
      "ĠLimit": 3467,
      "Ġ485": 3468,
      "Ġ548": 3469,
      "Ġ761": 3470,
      "AA": 3471,
      "Ġ805": 3472,
      "Ġ886": 3473,
      "Ġ737": 3474,
      "Ġinterest": 3475,
      "Solve": 3476,
      "dor": 3477,
      "ulo": 3478,
      "Ġ498": 3479,
      "Ġ778": 3480,
      "Ġ526": 3481,
      "MM": 3482,
      "ĠABC": 3483,
      "}^{-": 3484,
      "Ġ676": 3485,
      "Ġ799": 3486,
      "Ġ838": 3487,
      "Ġ823": 3488,
      "Ġrange": 3489,
      "Ġ557": 3490,
      "ĠRiemann": 3491,
      "Ġ587": 3492,
      "Ġ747": 3493,
      "abol": 3494,
      "SS": 3495,
      "Ġir": 3496,
      "Ġ772": 3497,
      "Ġ906": 3498,
      "Ġ575": 3499,
      "Ġ797": 3500,
      "Ġ733": 3501,
      "Ġ629": 3502,
      "Ġ869": 3503,
      "iew": 3504,
      "Ġregular": 3505,
      "bly": 3506,
      "Ġ508": 3507,
      "Ġ808": 3508,
      "Ġ741": 3509,
      "Ġ995": 3510,
      "ail": 3511,
      "ĠAre": 3512,
      "Ġstar": 3513,
      "Ġ885": 3514,
      "Ġ935": 3515,
      "Ġ628": 3516,
      "ger": 3517,
      "oints": 3518,
      "openint": 3519,
      "Ġweight": 3520,
      "Ġminutes": 3521,
      "wedge": 3522,
      "tinct": 3523,
      "Ġ446": 3524,
      "Ġ625": 3525,
      "Ġ979": 3526,
      "ĠRational": 3527,
      "Ġ586": 3528,
      "Ġ767": 3529,
      "Ġ872": 3530,
      "Write": 3531,
      "Ġ559": 3532,
      "Ġ809": 3533,
      "igen": 3534,
      "ĠClosure": 3535,
      "Ġmaximum": 3536,
      "mma": 3537,
      "Ġinequality": 3538,
      "Ġ707": 3539,
      "Ġ927": 3540,
      "Ġscal": 3541,
      "Ġconfidence": 3542,
      "Ġbinomial": 3543,
      "ĠFour": 3544,
      "Ġ727": 3545,
      "Ġ807": 3546,
      "Ġ685": 3547,
      "Ġ626": 3548,
      "ĠNon": 3549,
      "ingu": 3550,
      "ĠPolynomial": 3551,
      "Ġ692": 3552,
      "ĠSystem": 3553,
      "Ġalways": 3554,
      "ĠEquations": 3555,
      "Ġparallel": 3556,
      "inguistic": 3557,
      "Ġ633": 3558,
      "Ġ964": 3559,
      "Ġ877": 3560,
      "ason": 3561,
      "152": 3562,
      "Ġ491": 3563,
      "Ġ554": 3564,
      "Ġ433": 3565,
      "Ġ889": 3566,
      "Ġ988": 3567,
      "Ġ+_": 3568,
      "Ġwid": 3569,
      "osite": 3570,
      "Ġ844": 3571,
      "Ġ742": 3572,
      "Ġ745": 3573,
      "llip": 3574,
      "ĠSubgroup": 3575,
      "Ġ695": 3576,
      "Ġ962": 3577,
      "Ġ829": 3578,
      "Ġimport": 3579,
      "Ġvery": 3580,
      "Ġ939": 3581,
      "280": 3582,
      "Ġhundred": 3583,
      "mathrm": 3584,
      "olving": 3585,
      "Ġ562": 3586,
      "Ġassoci": 3587,
      "Ġ479": 3588,
      "Ġ867": 3589,
      "Ġreferred": 3590,
      "ĠIdentity": 3591,
      "Ġ638": 3592,
      "Ġ908": 3593,
      "Ġ461": 3594,
      "Ġ782": 3595,
      "ecause": 3596,
      "Ġ929": 3597,
      "Ġ359": 3598,
      "Ġ681": 3599,
      "Lem": 3600,
      "Ġ556": 3601,
      "Ġ543": 3602,
      "Ġ527": 3603,
      "Ġ953": 3604,
      "Ġ871": 3605,
      "ĠOper": 3606,
      "&&\\\\": 3607,
      "Ġ537": 3608,
      "ward": 3609,
      "Ġhomomorphism": 3610,
      "Ġproposition": 3611,
      "Ġ599": 3612,
      "Ġ957": 3613,
      "auch": 3614,
      "Ġ634": 3615,
      "Ġ659": 3616,
      "ĠDeterm": 3617,
      "auchy": 3618,
      "Order": 3619,
      "Ġ722": 3620,
      "Ġ541": 3621,
      "Ġ663": 3622,
      "Ġ788": 3623,
      "Ġ879": 3624,
      "Ġ923": 3625,
      "Ġdifferential": 3626,
      "Ġcorresponding": 3627,
      "Ġ758": 3628,
      "Ġ723": 3629,
      "Ġ571": 3630,
      "Ġ687": 3631,
      "Ġ938": 3632,
      "Ġcalculate": 3633,
      "Ġ481": 3634,
      "ĠRecall": 3635,
      "ped": 3636,
      "Ġinput": 3637,
      "Ġ383": 3638,
      "Ġ992": 3639,
      "Ġdigits": 3640,
      "Ġ861": 3641,
      "Ġratio": 3642,
      "Ġincl": 3643,
      "Ġ471": 3644,
      "Ġ769": 3645,
      "Ġ791": 3646,
      "Ġ977": 3647,
      "iel": 3648,
      "Ġdifferenti": 3649,
      "Ġintersection": 3650,
      "ics": 3651,
      "Ġ542": 3652,
      "Ġ671": 3653,
      "Ġ764": 3654,
      "Ġ854": 3655,
      "Ġ985": 3656,
      "Ġ641": 3657,
      "Ġ949": 3658,
      "adic": 3659,
      "Ġproportion": 3660,
      "urious": 3661,
      "}|": 3662,
      "ĠAddition": 3663,
      "Ġ622": 3664,
      "ĠFormula": 3665,
      "Ġprimes": 3666,
      "Ġmass": 3667,
      "Ġ398": 3668,
      "Ġ762": 3669,
      "Ġquadratic": 3670,
      "Ġ859": 3671,
      "als": 3672,
      "114": 3673,
      "Ġ881": 3674,
      "Ġ826": 3675,
      "Ġsubsets": 3676,
      "Ġcoordinate": 3677,
      "Ġagain": 3678,
      "Ġ785": 3679,
      "atives": 3680,
      "Ġhelp": 3681,
      "190": 3682,
      "ency": 3683,
      "Ġ981": 3684,
      "ĠNormal": 3685,
      "Ġbeg": 3686,
      "Ġ334": 3687,
      "Ġ751": 3688,
      "Ġ538": 3689,
      "Ġ973": 3690,
      "Ġ942": 3691,
      "Ġfigure": 3692,
      "Ġ904": 3693,
      "Ġ689": 3694,
      "Ġ698": 3695,
      "Ġaxioms": 3696,
      "Linguistic": 3697,
      "iven": 3698,
      "Ġ839": 3699,
      "Ġconc": 3700,
      "Ġlogarithm": 3701,
      "Ġnecessary": 3702,
      "Ġ373": 3703,
      "Ġ926": 3704,
      "rical": 3705,
      "Ġ566": 3706,
      "171": 3707,
      "Ġpound": 3708,
      "Ġ:=": 3709,
      "ĠField": 3710,
      "ĠPrime": 3711,
      "Ġ601": 3712,
      "Ġ802": 3713,
      "Ġ970": 3714,
      "Ġ598": 3715,
      "Ġ951": 3716,
      "Ġupper": 3717,
      "vity": 3718,
      "ertain": 3719,
      "ument": 3720,
      "102": 3721,
      "Ġcontaining": 3722,
      "Ġ971": 3723,
      "Ġ956": 3724,
      "Ġ833": 3725,
      "gular": 3726,
      "Ġ789": 3727,
      "{Â": 3728,
      "erson": 3729,
      "Ġ857": 3730,
      "Ġ866": 3731,
      "Ġoutput": 3732,
      "ĠDe": 3733,
      "Ġsegment": 3734,
      "Ġ662": 3735,
      "Ġ842": 3736,
      "Ġ998": 3737,
      "ausdor": 3738,
      "ausdorff": 3739,
      "Ġ502": 3740,
      "Ġ963": 3741,
      "size": 3742,
      "Ġexpressions": 3743,
      "Ġlocal": 3744,
      "153": 3745,
      "Ġ478": 3746,
      "Ġ739": 3747,
      "subset": 3748,
      "Ġ706": 3749,
      "Ġ673": 3750,
      "utive": 3751,
      "Ġwant": 3752,
      "ĠSem": 3753,
      "anach": 3754,
      "Ġproblems": 3755,
      "Ġ865": 3756,
      "Ġsymmetric": 3757,
      "Ġpermut": 3758,
      "Ġdem": 3759,
      "Ġ934": 3760,
      "ĠTri": 3761,
      "Ġ863": 3762,
      "Ġtransform": 3763,
      "read": 3764,
      "Ġdiagram": 3765,
      "192": 3766,
      "Ġprice": 3767,
      "Ġperiod": 3768,
      "ized": 3769,
      "Ġimportant": 3770,
      "omega": 3771,
      "Ġexper": 3772,
      "Ġ907": 3773,
      "Ġ978": 3774,
      "timate": 3775,
      "iver": 3776,
      "ribute": 3777,
      "Ġsent": 3778,
      "Ġlower": 3779,
      "Ġ974": 3780,
      "cipro": 3781,
      "Ġ937": 3782,
      "imensional": 3783,
      "Ġ892": 3784,
      "secutive": 3785,
      "Ġ959": 3786,
      "Ġ933": 3787,
      "Ġ921": 3788,
      "Ġways": 3789,
      "Ġplay": 3790,
      "Ġlist": 3791,
      "Ġ994": 3792,
      "Ġ922": 3793,
      "urs": 3794,
      "Ġwhole": 3795,
      "Ġ766": 3796,
      "Ġ967": 3797,
      "Ġwidth": 3798,
      "500": 3799,
      "ĠRight": 3800,
      ")}": 3801,
      "hip": 3802,
      "ob": 3803,
      "Ġ`": 3804,
      "ĠĊĊĠĊĠĊ": 3805,
      "pt": 3806,
      "Ġ883": 3807,
      "ocity": 3808,
      "ĠFours": 3809,
      "Ġ986": 3810,
      "Ġ989": 3811,
      "Ġsmall": 3812,
      "ields": 3813,
      "Ġ509": 3814,
      "angu": 3815,
      "Ġelect": 3816,
      "170": 3817,
      "ilter": 3818,
      "ositive": 3819,
      "bert": 3820,
      "metry": 3821,
      "Ġ827": 3822,
      "Ġgraphs": 3823,
      "Ġinduced": 3824,
      "-$": 3825,
      ";$": 3826,
      "Ġ691": 3827,
      "PP": 3828,
      "Ġ996": 3829,
      "ource": 3830,
      "Ġinches": 3831,
      "Ġplan": 3832,
      "ĠCauchy": 3833,
      "Ġequivalence": 3834,
      "Ġ[": 3835,
      "Ġ941": 3836,
      "Ġconclude": 3837,
      "Ġ521": 3838,
      "Ġname": 3839,
      "ĠCurious": 3840,
      "Ġ773": 3841,
      "ior": 3842,
      "Ġ903": 3843,
      "arily": 3844,
      "Ġdegrees": 3845,
      "ĠCos": 3846,
      "Ġlooking": 3847,
      "Ġcategory": 3848,
      "Ġmorphism": 3849,
      "ĠDistribution": 3850,
      "let": 3851,
      "arrow": 3852,
      "Ġprocess": 3853,
      "Ġneighborhood": 3854,
      "Ġobser": 3855,
      "Ġgeometric": 3856,
      "Ġ958": 3857,
      "Ġ947": 3858,
      "Ġ831": 3859,
      "Ġwhy": 3860,
      "ĠAnswer": 3861,
      "176": 3862,
      "Ġsatisfies": 3863,
      "Ġlogic": 3864,
      "aracteristic": 3865,
      ".}": 3866,
      "ĠLog": 3867,
      "Ġprevious": 3868,
      "}$$": 3869,
      "Ġforce": 3870,
      "Ġ653": 3871,
      "Ġhour": 3872,
      "165": 3873,
      "ee": 3874,
      "Ġ982": 3875,
      "Ġradical": 3876,
      "})=": 3877,
      "Ġ763": 3878,
      "162": 3879,
      "Ġ821": 3880,
      "reduc": 3881,
      "ĠInterval": 3882,
      "Ġsimpl": 3883,
      "ractice": 3884,
      "ĠCirc": 3885,
      "Ġ965": 3886,
      "ciprocal": 3887,
      "pret": 3888,
      ").**": 3889,
      "Note": 3890,
      "Ġint": 3891,
      "Ġincreasing": 3892,
      "tives": 3893,
      "Ġ523": 3894,
      "208": 3895,
      "168": 3896,
      "Ġ703": 3897,
      "Ġtell": 3898,
      "Ġmappings": 3899,
      "Ġgenerated": 3900,
      "Ġsmooth": 3901,
      "Ġmight": 3902,
      "Ġcour": 3903,
      "Ġdistinct": 3904,
      "ĠBanach": 3905,
      "{{(": 3906,
      "Puzzles": 3907,
      "Ġaround": 3908,
      "Ġlattice": 3909,
      "Ġback": 3910,
      "ĠBounded": 3911,
      "Ġexamples": 3912,
      "nit": 3913,
      "Ġtop": 3914,
      "Ġcent": 3915,
      "econd": 3916,
      "anguage": 3917,
      "Ġball": 3918,
      "Ġ993": 3919,
      "ĠĊĊ": 3920,
      "Ġdirect": 3921,
      "ĠState": 3922,
      "Ġfamily": 3923,
      "Ġcompon": 3924,
      "ness": 3925,
      "Ġcountable": 3926,
      "Ġdecre": 3927,
      "jugate": 3928,
      "Ġste": 3929,
      "Ġclosure": 3930,
      "ĠStr": 3931,
      "Ġsuppose": 3932,
      "182": 3933,
      "ĠPrinciple": 3934,
      "Ġallow": 3935,
      "\\\\-": 3936,
      "ĠUnion": 3937,
      "Ġ997": 3938,
      "Ġparameter": 3939,
      "204": 3940,
      "ĠLoc": 3941,
      "Ġimage": 3942,
      "Ġpolynomials": 3943,
      "neg": 3944,
      "pal": 3945,
      "}{(": 3946,
      "Ġvel": 3947,
      "156": 3948,
      "Ġordering": 3949,
      "ficients": 3950,
      "Ġgreat": 3951,
      "ĠExplain": 3952,
      "Lemma": 3953,
      "Ġsequences": 3954,
      "*:": 3955,
      "Ġtyp": 3956,
      "Ġarc": 3957,
      "'}": 3958,
      "Ġdefin": 3959,
      "Ġsaid": 3960,
      "Ġusually": 3961,
      "ĠAt": 3962,
      "ift": 3963,
      "Ġcol": 3964,
      "ĠExpress": 3965,
      "lear": 3966,
      "ĠIntersection": 3967,
      "Ġextend": 3968,
      "ĠDefinitions": 3969,
      "ption": 3970,
      "iss": 3971,
      "ĠMet": 3972,
      "ubl": 3973,
      "Ġdepend": 3974,
      "rincipal": 3975,
      "Ar": 3976,
      "}]": 3977,
      "ĠSeries": 3978,
      "ansion": 3979,
      "ĠSh": 3980,
      "Ġmakes": 3981,
      "Ġcolumns": 3982,
      "urther": 3983,
      "216": 3984,
      "Ġconcept": 3985,
      "288": 3986,
      "Ġshows": 3987,
      "ient": 3988,
      "154": 3989,
      "Ġ757": 3990,
      "ĠOr": 3991,
      "Ġnecessarily": 3992,
      "Number": 3993,
      "First": 3994,
      "Ġperfect": 3995,
      "AC": 3996,
      "tition": 3997,
      "Ġcall": 3998,
      "ĠQuotient": 3999,
      "Check": 4000,
      "ĠDec": 4001,
      "ilbert": 4002,
      "Ġ991": 4003,
      "ĠLemma": 4004,
      "lexive": 4005,
      "countable": 4006,
      "any": 4007,
      "ran": 4008,
      "Ġvelocity": 4009,
      "rel": 4010,
      "Ġdemon": 4011,
      "Ġsit": 4012,
      "ĠSage": 4013,
      "alse": 4014,
      "Ġpred": 4015,
      "remum": 4016,
      "uce": 4017,
      "Ġformulas": 4018,
      "Ġrepresents": 4019,
      "cle": 4020,
      "gor": 4021,
      "304": 4022,
      ")}$": 4023,
      "ĠComplete": 4024,
      "bedd": 4025,
      "ÎĶ": 4026,
      "Ġtem": 4027,
      "Ġparabol": 4028,
      "187": 4029,
      "Ġlarger": 4030,
      "Ġrelative": 4031,
      "Using": 4032,
      "Ġdual": 4033,
      "yth": 4034,
      "195": 4035,
      "matrixentry": 4036,
      "Ġgive": 4037,
      "Ġsix": 4038,
      "ĠHowever": 4039,
      "ĠBasis": 4040,
      "Ġapplied": 4041,
      "ĠOrdered": 4042,
      "EE": 4043,
      "Ġbl": 4044,
      "ha": 4045,
      "Ġcertain": 4046,
      "hedron": 4047,
      "gonometric": 4048,
      "Gamma": 4049,
      "rected": 4050,
      "Ġcomplement": 4051,
      "Ġinduction": 4052,
      "reducible": 4053,
      "Ġoperator": 4054,
      "prec": 4055,
      "ries": 4056,
      "ountably": 4057,
      "320": 4058,
      "Ġboundary": 4059,
      "ments": 4060,
      "med": 4061,
      "ism": 4062,
      "Ġeigen": 4063,
      "Ġwhile": 4064,
      "Ġchild": 4065,
      "Ġevent": 4066,
      "Ġperson": 4067,
      "ek": 4068,
      "|-": 4069,
      "}\\\\": 4070,
      "Ġ)": 4071,
      "Ġreason": 4072,
      "ĠEule": 4073,
      "ĠLaw": 4074,
      "Ġarg": 4075,
      "Ġrepresentation": 4076,
      "Ġestimate": 4077,
      "{Â¯": 4078,
      "220": 4079,
      "aking": 4080,
      "ley": 4081,
      "deg": 4082,
      "Ġpairs": 4083,
      "ifold": 4084,
      "Ġask": 4085,
      "{Â¯}{": 4086,
      "Ġpay": 4087,
      "Ġsemigroup": 4088,
      "tfrac": 4089,
      "ateral": 4090,
      "Algebra": 4091,
      "Ġunders": 4092,
      "Ġpresented": 4093,
      "rd": 4094,
      "sh": 4095,
      "ories": 4096,
      "Ġcomple": 4097,
      "Ġchoose": 4098,
      "vari": 4099,
      "ards": 4100,
      "Ġexpl": 4101,
      "ĠExpon": 4102,
      "ĠQuad": 4103,
      "Ġlit": 4104,
      "Ġtherefore": 4105,
      "Ġroots": 4106,
      "Ġextension": 4107,
      "ology": 4108,
      "Ġmultiplic": 4109,
      "St": 4110,
      "hing": 4111,
      "Ġpoly": 4112,
      "209": 4113,
      "Ġâ": 4114,
      "ĠHausdorff": 4115,
      "bb": 4116,
      "lin": 4117,
      "Ġdiagonal": 4118,
      "module": 4119,
      "ythag": 4120,
      "210": 4121,
      "Ġlanguage": 4122,
      "ĠNo": 4123,
      "Ġrectangular": 4124,
      "What": 4125,
      "Ġrev": 4126,
      "âĢĶ": 4127,
      "ĠIdeal": 4128,
      "plus": 4129,
      "ĠHe": 4130,
      "Ġstep": 4131,
      "ĠSup": 4132,
      "Ġhome": 4133,
      "285": 4134,
      "Ġasym": 4135,
      "Ġcourse": 4136,
      "198": 4137,
      "ĠNot": 4138,
      "uring": 4139,
      "Ġdiscrete": 4140,
      "ĠInduction": 4141,
      "Ġenc": 4142,
      "Ġcode": 4143,
      "Ġsitu": 4144,
      "ading": 4145,
      "Ġplot": 4146,
      "arth": 4147,
      "Ġvary": 4148,
      "Ġpolar": 4149,
      "Ġdouble": 4150,
      "Ġ(*": 4151,
      "Pr": 4152,
      "ĠDomain": 4153,
      "ĠMa": 4154,
      "ecessary": 4155,
      "Ġobjects": 4156,
      "Ġsignific": 4157,
      "complex": 4158,
      "Ġlocally": 4159,
      "Add": 4160,
      "rim": 4161,
      "ĠCor": 4162,
      "Ġtakes": 4163,
      "uit": 4164,
      "Ġordinal": 4165,
      "Ġrun": 4166,
      "Ġdemonstr": 4167,
      "ĠClick": 4168,
      "bl": 4169,
      "rational": 4170,
      "omet": 4171,
      "Ġmonth": 4172,
      "ĠValue": 4173,
      "Ġpass": 4174,
      "Ġsine": 4175,
      "Ġhand": 4176,
      "dimensional": 4177,
      "Ġtext": 4178,
      "Ġlearn": 4179,
      "Ġsti": 4180,
      "252": 4181,
      "ĠVer": 4182,
      "ĠInteger": 4183,
      "Ġprog": 4184,
      "ĠClass": 4185,
      "innerprod": 4186,
      "340": 4187,
      "Ġhap": 4188,
      "Ġexam": 4189,
      "arest": 4190,
      "Ġpat": 4191,
      "Ġdivisor": 4192,
      "224": 4193,
      "Bbb": 4194,
      "Ġcri": 4195,
      "ĠColle": 4196,
      "Ġabelian": 4197,
      "ĠUnit": 4198,
      "ĠKey": 4199,
      "Notice": 4200,
      "Ġmap": 4201,
      "dern": 4202,
      "306": 4203,
      "Ġsolid": 4204,
      "ĠPlane": 4205,
      "234": 4206,
      "ision": 4207,
      "Ġnote": 4208,
      "ĠAppl": 4209,
      ">*": 4210,
      "Ġrot": 4211,
      "ĠIsomorphism": 4212,
      "co": 4213,
      "Ġcoin": 4214,
      "ithm": 4215,
      "ĠGe": 4216,
      "Ġformed": 4217,
      "olean": 4218,
      "ict": 4219,
      "ĠHilbert": 4220,
      "vectrep": 4221,
      "Ġthink": 4222,
      "Ġsmaller": 4223,
      "gorithm": 4224,
      "Mo": 4225,
      "ĠCy": 4226,
      "221": 4227,
      "Ġunivers": 4228,
      "leq": 4229,
      "Ġscalar": 4230,
      "Ġuniform": 4231,
      "ĠWell": 4232,
      "mon": 4233,
      "quent": 4234,
      "Ġlarge": 4235,
      "ĠGre": 4236,
      "aster": 4237,
      "}:": 4238,
      "ĠSy": 4239,
      "Ġread": 4240,
      "247": 4241,
      "Ġoutc": 4242,
      "Ġlinearly": 4243,
      "ensity": 4244,
      "Ġext": 4245,
      "Ġmeasures": 4246,
      "Ġtwice": 4247,
      "mber": 4248,
      "ĠPres": 4249,
      "Ġtravel": 4250,
      "Ġarithmetic": 4251,
      "380": 4252,
      "ĠPythag": 4253,
      "Ġplaces": 4254,
      "})(": 4255,
      "tilde": 4256,
      "ursive": 4257,
      "oplus": 4258,
      "ĠSur": 4259,
      "Ġwithin": 4260,
      "ern": 4261,
      "Ġnearest": 4262,
      "ĠComplement": 4263,
      "Ġcosine": 4264,
      "Ġdri": 4265,
      "Ġdiscus": 4266,
      "sup": 4267,
      "ased": 4268,
      "Ġsubstitute": 4269,
      "Substitute": 4270,
      ".)": 4271,
      "jac": 4272,
      "Ġ\\{": 4273,
      "ording": 4274,
      "llipse": 4275,
      "Set": 4276,
      "Ġconven": 4277,
      "ĠUnivers": 4278,
      "Ġpounds": 4279,
      "EF": 4280,
      "Ġcalculator": 4281,
      "ĠRes": 4282,
      "veral": 4283,
      "Ġcoefficients": 4284,
      "Ġtemper": 4285,
      "hel": 4286,
      "gonal": 4287,
      "rest": 4288,
      "Ġrepe": 4289,
      "ĠWork": 4290,
      "Ġmathematics": 4291,
      "Ġrelationship": 4292,
      "ape": 4293,
      "ectives": 4294,
      "ĠTr": 4295,
      "Ġfar": 4296,
      "270": 4297,
      "ott": 4298,
      "Ġcontinu": 4299,
      "Ġcover": 4300,
      "Ġrows": 4301,
      "ĠSm": 4302,
      "Ġear": 4303,
      "tible": 4304,
      "260": 4305,
      "272": 4306,
      "Ġri": 4307,
      "ĠSecond": 4308,
      "Ġconsidered": 4309,
      "stitution": 4310,
      "Ġedge": 4311,
      "list": 4312,
      "{,": 4313,
      "psi": 4314,
      "elf": 4315,
      "land": 4316,
      "kets": 4317,
      "nu": 4318,
      "Ġ={": 4319,
      "Ġhyperbol": 4320,
      "ĠDeriv": 4321,
      "Ġedges": 4322,
      "228": 4323,
      "aly": 4324,
      "ĠPuzzles": 4325,
      "Ġtruth": 4326,
      "Ġembedd": 4327,
      "Ċĉĉĉĉ": 4328,
      "roid": 4329,
      "Ġsolving": 4330,
      "Ġsystems": 4331,
      "pr": 4332,
      "Ġsuc": 4333,
      "Ġusual": 4334,
      "Ġaltern": 4335,
      "Rec": 4336,
      "âĪ¬": 4337,
      "Ġexperim": 4338,
      "Ġstill": 4339,
      "),(": 4340,
      "ĠCommutative": 4341,
      "Ġinters": 4342,
      "pri": 4343,
      "ather": 4344,
      "ĠTest": 4345,
      "Ġconstruct": 4346,
      "600": 4347,
      "Ġconditions": 4348,
      "Ġsteps": 4349,
      "medi": 4350,
      "Ġwater": 4351,
      "Ġdiver": 4352,
      "struction": 4353,
      "connected": 4354,
      "Ġ1000": 4355,
      "Ġconvex": 4356,
      "ĠLa": 4357,
      "ĠExercises": 4358,
      "Ġsatisfy": 4359,
      "amp": 4360,
      "Ġdifferentiable": 4361,
      "ene": 4362,
      "Ġchar": 4363,
      "Ġbijection": 4364,
      "ages": 4365,
      "Ġweak": 4366,
      "Ġmultiplying": 4367,
      "ĠBy": 4368,
      "ĠGiven": 4369,
      "Ġ\\,}": 4370,
      "ĠCollege": 4371,
      "ĠTransformation": 4372,
      "Ġisomorphic": 4373,
      "Ġsense": 4374,
      "velo": 4375,
      "342": 4376,
      "Ġ().": 4377,
      "arity": 4378,
      "Ġunion": 4379,
      "Ġmeaning": 4380,
      "Ġsymmetry": 4381,
      "Ġsentence": 4382,
      "Ġ'": 4383,
      "Ġlab": 4384,
      "undam": 4385,
      "Ġminimum": 4386,
      "Ġbasic": 4387,
      "tead": 4388,
      "ĠEuler": 4389,
      "ĠMo": 4390,
      "istent": 4391,
      "ĠSubspace": 4392,
      "Ġdescribed": 4393,
      "ĠEm": 4394,
      "323": 4395,
      "Ġcyclic": 4396,
      "$)": 4397,
      "rams": 4398,
      "ntry": 4399,
      "Ġcube": 4400,
      "ĠPositive": 4401,
      "Ġseveral": 4402,
      "ĠCharacter": 4403,
      "jacent": 4404,
      "Source": 4405,
      "ĠAll": 4406,
      "ĠCheck": 4407,
      "Ġcontrad": 4408,
      "Ġjoin": 4409,
      "bar": 4410,
      "ĠTable": 4411,
      "Ġvers": 4412,
      "238": 4413,
      "Ġfunctor": 4414,
      "âĢ¦": 4415,
      "ketch": 4416,
      "ĠImage": 4417,
      "Ġ{-": 4418,
      "tically": 4419,
      "Ġconsecutive": 4420,
      "255": 4421,
      "rod": 4422,
      "aligned": 4423,
      "266": 4424,
      "wn": 4425,
      "onds": 4426,
      "Ġpubl": 4427,
      "cdotp": 4428,
      "Ġmathematical": 4429,
      "undamental": 4430,
      "Ġfree": 4431,
      "hogonal": 4432,
      "ĠAnalysis": 4433,
      "Ġmeet": 4434,
      "Ġcount": 4435,
      "rant": 4436,
      "tis": 4437,
      "ĠDivis": 4438,
      "ĠNecessary": 4439,
      "equiv": 4440,
      "ression": 4441,
      "Ġdays": 4442,
      "ĠAnswers": 4443,
      "Im": 4444,
      "___": 4445,
      "Ġdependent": 4446,
      "Ġchapter": 4447,
      "Ġpropositional": 4448,
      "ax": 4449,
      "pto": 4450,
      "Ġcases": 4451,
      "alk": 4452,
      "Ġhigh": 4453,
      "ĠNotice": 4454,
      "Ġintervals": 4455,
      "Mistake": 4456,
      "Sim": 4457,
      "enn": 4458,
      "ĠMin": 4459,
      "ffect": 4460,
      "On": 4461,
      "point": 4462,
      "Ġcross": 4463,
      "ark": 4464,
      "Ġconvergent": 4465,
      "ĠInfinite": 4466,
      "}[": 4467,
      "}}+": 4468,
      "lection": 4469,
      "ĠExample": 4470,
      "Ġspecific": 4471,
      "ĠPythagore": 4472,
      "Ġput": 4473,
      "Ġdone": 4474,
      "ĠMistake": 4475,
      "Ġtree": 4476,
      "Ġturn": 4477,
      "ĠNatural": 4478,
      "Ġgood": 4479,
      "Ġhig": 4480,
      "ilarly": 4481,
      "ĠCircle": 4482,
      "Is": 4483,
      "Trans": 4484,
      "Ġfoc": 4485,
      "225": 4486,
      "Ġrepresented": 4487,
      "Ġdiscuss": 4488,
      "ĠĊĠĊ": 4489,
      "Ġcorrect": 4490,
      "ĠElements": 4491,
      "Ġappears": 4492,
      "Ġcreate": 4493,
      "center": 4494,
      "Ġsure": 4495,
      "hool": 4496,
      "Ġ#####": 4497,
      "Ġmagnit": 4498,
      "ĠPreser": 4499,
      "Ġtemperature": 4500,
      "Ġtic": 4501,
      "Ġappropri": 4502,
      "Ġexponent": 4503,
      "Ġclear": 4504,
      "{âĪĴ}{": 4505,
      "use": 4506,
      "Ġinteres": 4507,
      "ited": 4508,
      "istance": 4509,
      "ĠOn": 4510,
      "ready": 4511,
      "Ġsin": 4512,
      "121": 4513,
      "Ġsphere": 4514,
      "mid": 4515,
      "inity": 4516,
      "Ġinves": 4517,
      "Ġcop": 4518,
      "Ġcharacteristic": 4519,
      "Ġbel": 4520,
      "Ġbeha": 4521,
      "ĠFinding": 4522,
      "ference": 4523,
      "Ġformal": 4524,
      "Ġfinding": 4525,
      "elta": 4526,
      "II": 4527,
      "Ġill": 4528,
      "Ġgrow": 4529,
      "ident": 4530,
      "Ġconstruc": 4531,
      "ĠFrac": 4532,
      "Ġintegrals": 4533,
      "ĠOperation": 4534,
      "ought": 4535,
      "Ġalready": 4536,
      "Rewrite": 4537,
      "Ġchain": 4538,
      "ĠNormed": 4539,
      "ĠEqual": 4540,
      "oney": 4541,
      "ĠPerfect": 4542,
      "restriction": 4543,
      "Ġinclude": 4544,
      "125": 4545,
      "trans": 4546,
      "Ġlaw": 4547,
      "Ġcombin": 4548,
      "Ġspecial": 4549,
      "pmod": 4550,
      "Ġâĵĵ": 4551,
      "df": 4552,
      "Ġage": 4553,
      "Ġweek": 4554,
      "iti": 4555,
      "Ġfalse": 4556,
      "Ġcompletely": 4557,
      ")=âĪĴ": 4558,
      "Ġstre": 4559,
      "âĢ³": 4560,
      "nel": 4561,
      "Ġgreatest": 4562,
      "Ġargument": 4563,
      "Ġgra": 4564,
      "Ġsubgroups": 4565,
      "Ġdimensions": 4566,
      "ĠMeasure": 4567,
      "stances": 4568,
      "Factor": 4569,
      "Ġenti": 4570,
      "Ġapplications": 4571,
      "Modern": 4572,
      "Ġ+}$": 4573,
      "Ġsl": 4574,
      "ircul": 4575,
      "ĠOperator": 4576,
      "wh": 4577,
      "lected": 4578,
      "Ġcontained": 4579,
      "less": 4580,
      "Ġinside": 4581,
      "Ġappropriate": 4582,
      "aring": 4583,
      "vey": 4584,
      "inear": 4585,
      "Real": 4586,
      "GG": 4587,
      "Val": 4588,
      "ided": 4589,
      "ask": 4590,
      "Ġwhatever": 4591,
      "utomorphism": 4592,
      "Ġrequired": 4593,
      "ĠRound": 4594,
      "ĠGeneral": 4595,
      "Ġinclud": 4596,
      "NN": 4597,
      "Ġdx": 4598,
      "Ġlo": 4599,
      "Ġbody": 4600,
      "Ġcircum": 4601,
      "ĠPythagorean": 4602,
      "isting": 4603,
      "ĠAngles": 4604,
      "Ġquantity": 4605,
      ",âĪŀ": 4606,
      "ued": 4607,
      "Ġdensity": 4608,
      "Ġfixed": 4609,
      "amil": 4610,
      "ĠChapter": 4611,
      "Ġtrivial": 4612,
      "ĠDetermine": 4613,
      "Ġtransformations": 4614,
      "Ġent": 4615,
      "Ġinterpret": 4616,
      "Ġ________": 4617,
      "linder": 4618,
      "tle": 4619,
      "imed": 4620,
      "ĠEvery": 4621,
      "Ġexplain": 4622,
      "ĠPrim": 4623,
      "Ġhom": 4624,
      "ons": 4625,
      "icate": 4626,
      "Ġtrigonometric": 4627,
      "Ġstatistic": 4628,
      "Ġadding": 4629,
      "Ġneeds": 4630,
      "Ġrestriction": 4631,
      "Ġillust": 4632,
      "Define": 4633,
      "^+": 4634,
      "ised": 4635,
      "----": 4636,
      "eful": 4637,
      "Ġdevelo": 4638,
      "rate": 4639,
      "Ġmi": 4640,
      "ales": 4641,
      "Ġphys": 4642,
      "orentry": 4643,
      "vectorentry": 4644,
      "{({": 4645,
      "ĠUnique": 4646,
      "ĠSufficient": 4647,
      "ĠSolutions": 4648,
      "ĠIdentify": 4649,
      ":*": 4650,
      "ij": 4651,
      "Ġpur": 4652,
      "Ġnor": 4653,
      "eters": 4654,
      "vertible": 4655,
      "Cl": 4656,
      "ĠCur": 4657,
      "most": 4658,
      "Ġcare": 4659,
      "ĠThus": 4660,
      "196": 4661,
      "Ġintrod": 4662,
      "ĠSection": 4663,
      "Ġmodulo": 4664,
      "Ġflu": 4665,
      "Ġâī": 4666,
      "junction": 4667,
      "Ġcod": 4668,
      "ĠPoints": 4669,
      "Ġreference": 4670,
      "Ġintersect": 4671,
      "av": 4672,
      "uces": 4673,
      "iece": 4674,
      "exists": 4675,
      "Ġexponents": 4676,
      "Ġindexed": 4677,
      "Ch": 4678,
      "tr": 4679,
      "quency": 4680,
      "Ġcoset": 4681,
      "ĠConvex": 4682,
      "Ġscore": 4683,
      "Ġpermutation": 4684,
      "ĠTerm": 4685,
      "Ġconsists": 4686,
      "ĠArea": 4687,
      "Ġtypes": 4688,
      "ĠShow": 4689,
      "))": 4690,
      "ean": 4691,
      "range": 4692,
      "Î¼": 4693,
      "Ġsug": 4694,
      "ogene": 4695,
      "ĠMaxim": 4696,
      "bin": 4697,
      "Ġmain": 4698,
      "Ġeight": 4699,
      "ĠHomomorphism": 4700,
      "Ġconn": 4701,
      "Ġpattern": 4702,
      "jor": 4703,
      "herical": 4704,
      "Ġmove": 4705,
      "Ġmoney": 4706,
      "plane": 4707,
      "Ġcomposite": 4708,
      "Ġidentify": 4709,
      "Ġstatements": 4710,
      "ruence": 4711,
      "cot": 4712,
      "1000": 4713,
      "Ġconvert": 4714,
      "Ġunderst": 4715,
      "vation": 4716,
      "ernel": 4717,
      "Ġft": 4718,
      "ĠAfter": 4719,
      "ĠRoot": 4720,
      "Ġmeasured": 4721,
      "Ġempty": 4722,
      "Ġbehavi": 4723,
      "{!": 4724,
      "}=âĮ©": 4725,
      "ĠConnected": 4726,
      "Ġround": 4727,
      "169": 4728,
      "ĠLCD": 4729,
      "}}}$": 4730,
      "âĵĴ": 4731,
      ".}$": 4732,
      "Ġuseful": 4733,
      "Ġshape": 4734,
      "250": 4735,
      "Ġactually": 4736,
      "Ġsy": 4737,
      "Because": 4738,
      "Ġprincipal": 4739,
      "Ġseconds": 4740,
      "Ġapproximately": 4741,
      "Ġtells": 4742,
      "Ġparabola": 4743,
      "binom": 4744,
      "Ġperform": 4745,
      "Form": 4746,
      "Ã¶": 4747,
      "}}(": 4748,
      "ĊĊĠĊĊĠĊĠĊ": 4749,
      "ĠSpaces": 4750,
      "rame": 4751,
      "riting": 4752,
      "Ġevalu": 4753,
      "iff": 4754,
      "ayley": 4755,
      "Ġapproach": 4756,
      "Ġevents": 4757,
      "ĠDifference": 4758,
      "variant": 4759,
      ",-": 4760,
      "enth": 4761,
      "Ġcomputer": 4762,
      "ĠMethod": 4763,
      "ying": 4764,
      "ddle": 4765,
      "ĠPractice": 4766,
      "Ġchoice": 4767,
      "helon": 4768,
      "armon": 4769,
      "}^{âĢ³": 4770,
      "Ġzeros": 4771,
      "ĠProperties": 4772,
      "Ne": 4773,
      "ĠContinu": 4774,
      "equal": 4775,
      "ĠOrdering": 4776,
      "Ġassume": 4777,
      "Ġsymbols": 4778,
      "ĠDiscrete": 4779,
      "ollar": 4780,
      "Ġcut": 4781,
      "Ġbinary": 4782,
      "values": 4783,
      "Ġlimits": 4784,
      "Ġbegin": 4785,
      "ĠCho": 4786,
      "Ġelementary": 4787,
      "ĠAlgebraic": 4788,
      "Ġ;": 4789,
      "Ġinstances": 4790,
      "Ġcartesian": 4791,
      "Ġhold": 4792,
      "armonic": 4793,
      "Ġentire": 4794,
      "Ġelim": 4795,
      "Ġonce": 4796,
      "Ġcardinal": 4797,
      "ĠNow": 4798,
      "ĠCont": 4799,
      "ordinate": 4800,
      "Ġtriangles": 4801,
      "af": 4802,
      "ball": 4803,
      "mer": 4804,
      "relation": 4805,
      "entation": 4806,
      "tabl": 4807,
      "ĠConvergent": 4808,
      "ĠRiemannian": 4809,
      "Ġassociated": 4810,
      "AD": 4811,
      "atter": 4812,
      "member": 4813,
      "ĊĠĊĠĊĊĠĊĠĊ": 4814,
      "Ġeasy": 4815,
      "ĠIr": 4816,
      "ĠComb": 4817,
      "Ġcomposition": 4818,
      "product": 4819,
      "^-": 4820,
      "Ġpartition": 4821,
      "Ġcombination": 4822,
      "Ġgraphing": 4823,
      "Ġestabl": 4824,
      "Ġconstruction": 4825,
      "ĠSymmetric": 4826,
      "Ġable": 4827,
      "tig": 4828,
      "ĠConcepts": 4829,
      "Ġprec": 4830,
      "Ġappear": 4831,
      "bigcup": 4832,
      "Ġoutcomes": 4833,
      "Ġmagnitude": 4834,
      "Graph": 4835,
      "ĠRef": 4836,
      "Ġbased": 4837,
      "meas": 4838,
      "rivial": 4839,
      "ĠAd": 4840,
      "tract": 4841,
      "ĠExist": 4842,
      "}}.$": 4843,
      "Ġreduced": 4844,
      "omething": 4845,
      "rangle": 4846,
      "Ġtre": 4847,
      "Ġcateg": 4848,
      "hoint": 4849,
      "ĠRegular": 4850,
      "Ġclasses": 4851,
      "Ġimpro": 4852,
      "Ġsurvey": 4853,
      "ki": 4854,
      "ĠBi": 4855,
      "Ġinstead": 4856,
      "rop": 4857,
      "Ġdollar": 4858,
      "unity": 4859,
      "})+": 4860,
      "pot": 4861,
      "Ġparam": 4862,
      "ort": 4863,
      "Ġown": 4864,
      "stance": 4865,
      "Ġsometimes": 4866,
      "Ġexpect": 4867,
      "Ġreciprocal": 4868,
      "Ġellipse": 4869,
      "Ġass": 4870,
      "Ġquart": 4871,
      "Ġbases": 4872,
      "ĠSepar": 4873,
      "Ġtechnique": 4874,
      "Ġmedian": 4875,
      "Ġinner": 4876,
      "notin": 4877,
      "Ġsituation": 4878,
      "{Â°": 4879,
      "Ġdense": 4880,
      "hence": 4881,
      "ensurable": 4882,
      "ĠMappings": 4883,
      "ĠAbsolute": 4884,
      "ĠSimple": 4885,
      "ĠLogarithm": 4886,
      "with": 4887,
      "Ġmen": 4888,
      "ĠExtension": 4889,
      "illings": 4890,
      "Ġfew": 4891,
      "Ġaccount": 4892,
      "Ġdescribe": 4893,
      "Ġdetermined": 4894,
      "tt": 4895,
      "ategy": 4896,
      "Ġacross": 4897,
      "âĮª$": 4898,
      "Ġdecreasing": 4899,
      "Ġsuccess": 4900,
      "pect": 4901,
      "Ġten": 4902,
      "ife": 4903,
      "ĠBut": 4904,
      "ĠOb": 4905,
      "Ġmeasurable": 4906,
      "|$": 4907,
      "Ġpi": 4908,
      "uctive": 4909,
      "Ġmark": 4910,
      "Ġuntil": 4911,
      "ĠQuadratic": 4912,
      "which": 4913,
      "\",": 4914,
      "CF": 4915,
      "kn": 4916,
      "oment": 4917,
      "Ġhous": 4918,
      "ĠThese": 4919,
      "ĠBo": 4920,
      "Ġ$(-": 4921,
      "ĊĊĠĊĠ": 4922,
      "Ġletters": 4923,
      "singular": 4924,
      "Ġlogical": 4925,
      "Ġenough": 4926,
      "field": 4927,
      "vail": 4928,
      "Ġoff": 4929,
      "Ġobtained": 4930,
      "Un": 4931,
      "rent": 4932,
      "Ġbott": 4933,
      "Ġfields": 4934,
      "strictly": 4935,
      "\\,}_": 4936,
      "ĠSemigroup": 4937,
      "Ġexperiment": 4938,
      "ircular": 4939,
      "Ġtask": 4940,
      "ĠDual": 4941,
      "cend": 4942,
      ")=-": 4943,
      "Ġdeterminant": 4944,
      "ĠStructure": 4945,
      "One": 4946,
      "ĠMultiple": 4947,
      "Ġanti": 4948,
      "Ġbuil": 4949,
      "ĠAssoci": 4950,
      "?$": 4951,
      "He": 4952,
      "Ġtes": 4953,
      "logram": 4954,
      "256": 4955,
      "Divide": 4956,
      "Phi": 4957,
      "Ġanalysis": 4958,
      "Ġ$({": 4959,
      "ĠConsider": 4960,
      "ĠCorollary": 4961,
      "Ġsimply": 4962,
      "ĠCharacterization": 4963,
      "Ġtickets": 4964,
      "aneous": 4965,
      "ius": 4966,
      "ping": 4967,
      "ĠCountable": 4968,
      "ĠHere": 4969,
      "Ġtotally": 4970,
      "Ġdefinitions": 4971,
      "ĠSquares": 4972,
      "quently": 4973,
      "langle": 4974,
      "Ġreplace": 4975,
      "ĠProve": 4976,
      "ĠBe": 4977,
      "Ġvarious": 4978,
      "neq": 4979,
      "Ġmotion": 4980,
      "}}^{âĪĴ": 4981,
      "Ġirreducible": 4982,
      "Valued": 4983,
      "Gener": 4984,
      "det": 4985,
      "Ġsomething": 4986,
      "Ġtrinomial": 4987,
      "Ġ$+": 4988,
      "Ġmanifold": 4989,
      "Ġschool": 4990,
      "ĠParalle": 4991,
      "ĠWhich": 4992,
      "ĠOrdinal": 4993,
      "'}$": 4994,
      "work": 4995,
      "Ġhim": 4996,
      "ĠDeg": 4997,
      "Ġdirected": 4998,
      "Ġapproximate": 4999,
      "ĠCorrection": 5000,
      "vailable": 5001,
      "jectives": 5002,
      "Ġsci": 5003,
      "ĠWFF": 5004,
      "ĠWeak": 5005,
      "rightarrow": 5006,
      "Ġexercise": 5007,
      "ĊĊĠĊĠĊĠ": 5008,
      "Ġremains": 5009,
      "Ġexcl": 5010,
      "Ġcollection": 5011,
      "Ġcomponent": 5012,
      "Ġembedded": 5013,
      "Ġfit": 5014,
      "These": 5015,
      "sume": 5016,
      "ributed": 5017,
      "ĠPath": 5018,
      "igns": 5019,
      "llable": 5020,
      "Ġdrawn": 5021,
      "',": 5022,
      "Lambda": 5023,
      "ire": 5024,
      "lier": 5025,
      "Ġhence": 5026,
      "Ġsufficient": 5027,
      "ĠIns": 5028,
      "ices": 5029,
      "Ġtriple": 5030,
      "ĠExpressions": 5031,
      "{â": 5032,
      "ĠShe": 5033,
      "Ġremaining": 5034,
      "Ġcompare": 5035,
      "Ġvariance": 5036,
      "Ġdivisible": 5037,
      "Ġmaster": 5038,
      "icit": 5039,
      "fr": 5040,
      "}^{*": 5041,
      "DE": 5042,
      "pper": 5043,
      "Ġfilter": 5044,
      "riz": 5045,
      "Ġmill": 5046,
      "Ġ*}$": 5047,
      "ĠConstant": 5048,
      "auss": 5049,
      "Ġderivatives": 5050,
      "Ġquadrant": 5051,
      "ĠSylow": 5052,
      "ogeneous": 5053,
      "Ġbehavior": 5054,
      "Ġret": 5055,
      "aps": 5056,
      "Ġdisjoint": 5057,
      "Ġmetac": 5058,
      "Ġadjacent": 5059,
      "ĠThey": 5060,
      "imeter": 5061,
      "}$:": 5062,
      "ĠPre": 5063,
      "chimed": 5064,
      "ĠExponential": 5065,
      "gen": 5066,
      "rr": 5067,
      "Ġ}$.": 5068,
      "leading": 5069,
      "ĠSc": 5070,
      "Ġadditive": 5071,
      "there": 5072,
      "Ġort": 5073,
      "Delta": 5074,
      "ulting": 5075,
      "Ġcone": 5076,
      "Ġequil": 5077,
      "valid": 5078,
      "Ġcosts": 5079,
      "Ġpowers": 5080,
      "Ġdiscover": 5081,
      "ĠThree": 5082,
      "qquad": 5083,
      "Ġentry": 5084,
      "aches": 5085,
      "mathfr": 5086,
      "Ġrecursive": 5087,
      "Ġchecklist": 5088,
      "ĠWhy": 5089,
      "Ġstarting": 5090,
      "ĠCosine": 5091,
      "measurable": 5092,
      "mathfrak": 5093,
      "ĠSine": 5094,
      "Ġprogram": 5095,
      "}âĢĸ": 5096,
      "Ġaction": 5097,
      "ĠRel": 5098,
      "Ġselected": 5099,
      "Loc": 5100,
      "Ġtry": 5101,
      "rid": 5102,
      "hods": 5103,
      "ĠRepres": 5104,
      "Ġrelated": 5105,
      "ĠSequences": 5106,
      "Ġimmedi": 5107,
      "Ġanswers": 5108,
      "Ġconsisting": 5109,
      "Ġbran": 5110,
      "Ġminimal": 5111,
      "Ġmode": 5112,
      "ĠConvergence": 5113,
      "Translate": 5114,
      "Identi": 5115,
      "mented": 5116,
      "ĠLattice": 5117,
      "zerovector": 5118,
      "^*$": 5119,
      "Ġprimitive": 5120,
      "Recall": 5121,
      "csc": 5122,
      "Ġinjection": 5123,
      "astic": 5124,
      "Ġproved": 5125,
      "ĠConstruction": 5126,
      "Ġtransitive": 5127,
      "Ġprecise": 5128,
      "ĠHyperbol": 5129,
      "Ġlies": 5130,
      "Ġshift": 5131,
      "cccc": 5132,
      "ĠTransform": 5133,
      "Ġche": 5134,
      "Ġresulting": 5135,
      "Ġhaving": 5136,
      "Ġcalculated": 5137,
      "Ġelectric": 5138,
      "Ġextended": 5139,
      "ĠDerivative": 5140,
      "Ġconstructed": 5141,
      "Ġlater": 5142,
      "ĠEarth": 5143,
      "ored": 5144,
      "Ġmath": 5145,
      "ĠStraight": 5146,
      "Ġgeometry": 5147,
      "Ab": 5148,
      "inate": 5149,
      "ĠType": 5150,
      "Ġcong": 5151,
      "ogn": 5152,
      "Ġtriangular": 5153,
      "'$.": 5154,
      "ants": 5155,
      "ĠDirect": 5156,
      "âĢĥ": 5157,
      "Ġrandomly": 5158,
      "ĠExistence": 5159,
      "Ġcell": 5160,
      "iscrete": 5161,
      "Ġeffect": 5162,
      "enty": 5163,
      "Ġverify": 5164,
      "Ġquestions": 5165,
      "view": 5166,
      "Ġpot": 5167,
      "Ġadded": 5168,
      "image": 5169,
      "Ġcollege": 5170,
      "001": 5171,
      "intercepts": 5172,
      "ĠNew": 5173,
      "Ġcounting": 5174,
      "Ġfull": 5175,
      "ances": 5176,
      "Ġearn": 5177,
      "Ġseven": 5178,
      "Ġthus": 5179,
      "cdotd": 5180,
      "erv": 5181,
      "Ġpiece": 5182,
      "ĠNegative": 5183,
      "Ġeasier": 5184,
      "Ġchildren": 5185,
      "ĠApplications": 5186,
      "Th": 5187,
      "Ġworks": 5188,
      "Ġprob": 5189,
      "Ġcylinder": 5190,
      "stants": 5191,
      "equalities": 5192,
      "-*": 5193,
      "pim": 5194,
      "|}": 5195,
      "Ġcap": 5196,
      "ompact": 5197,
      "seud": 5198,
      "}+{(": 5199,
      "{:": 5200,
      "Ġasympto": 5201,
      "Ġcritical": 5202,
      "Every": 5203,
      "ois": 5204,
      "acci": 5205,
      "ĠCayley": 5206,
      "Ġequality": 5207,
      ")=(": 5208,
      "Ġpolygon": 5209,
      "Ġimpl": 5210,
      "onacci": 5211,
      "Ġfurther": 5212,
      "Ġrewrite": 5213,
      "Ġanaly": 5214,
      "Ġadult": 5215,
      ".\"": 5216,
      "You": 5217,
      "square": 5218,
      "ĠEng": 5219,
      "Ġprojection": 5220,
      "},\\,": 5221,
      "Ġincrease": 5222,
      "Ġincreases": 5223,
      "Ġcareful": 5224,
      "Ġwom": 5225,
      "Ġconclusion": 5226,
      "ilities": 5227,
      "Ġrise": 5228,
      "Ġcla": 5229,
      "Ġmaximal": 5230,
      "Ġmultiplicative": 5231,
      "Par": 5232,
      "uding": 5233,
      "ulus": 5234,
      "Ġsubstitution": 5235,
      "ĠComposite": 5236,
      "Ġmethods": 5237,
      "Ġdemonstrated": 5238,
      "transpose": 5239,
      "Di": 5240,
      "KK": 5241,
      "sen": 5242,
      "289": 5243,
      "ceed": 5244,
      "ches": 5245,
      "points": 5246,
      "Ġwalk": 5247,
      "edom": 5248,
      "ĠEquivalent": 5249,
      "ime": 5250,
      "ĠHome": 5251,
      "Ġprof": 5252,
      "jecture": 5253,
      "Ġcurves": 5254,
      "pimorphism": 5255,
      "@{-": 5256,
      "ivides": 5257,
      "though": 5258,
      "}}}{": 5259,
      "ĠModule": 5260,
      "Ġarithmetical": 5261,
      "Ġversion": 5262,
      "Ġentries": 5263,
      "Wh": 5264,
      "puts": 5265,
      "Ġ____": 5266,
      "Ġsays": 5267,
      "Ġexpansion": 5268,
      "Ġmid": 5269,
      "pling": 5270,
      "ĠEven": 5271,
      "odot": 5272,
      "els": 5273,
      "chi": 5274,
      "âĪŀ$": 5275,
      "ĠAbelian": 5276,
      "ĠVariable": 5277,
      "ĠAxioms": 5278,
      ")]": 5279,
      "mation": 5280,
      "}).$": 5281,
      "Ġinvertible": 5282,
      "ĠRo": 5283,
      "Ġuses": 5284,
      "Ġupon": 5285,
      "Similarly": 5286,
      "%}$": 5287,
      "Each": 5288,
      "rum": 5289,
      "Ġbre": 5290,
      "cele": 5291,
      "Ġsums": 5292,
      "tax": 5293,
      "anged": 5294,
      "Ġesti": 5295,
      "Puzzle": 5296,
      "card": 5297,
      "ium": 5298,
      "ĠRad": 5299,
      "eces": 5300,
      "ĠUniversity": 5301,
      "}âĪĴ": 5302,
      "ĭ¯": 5303,
      "Ġalgorithm": 5304,
      "Ġvis": 5305,
      "Ġneither": 5306,
      "Ġmeters": 5307,
      "AE": 5308,
      "Here": 5309,
      "xes": 5310,
      "Ġbest": 5311,
      "Ġoun": 5312,
      "Ġnet": 5313,
      "allest": 5314,
      "ibonacci": 5315,
      "Complex": 5316,
      "bounded": 5317,
      "ips": 5318,
      "ker": 5319,
      "ww": 5320,
      "eng": 5321,
      "ĠMean": 5322,
      "hointr": 5323,
      "Ġhouse": 5324,
      "Ġonto": 5325,
      "ĠBecause": 5326,
      "Ġsolved": 5327,
      "atible": 5328,
      "Ġcurrent": 5329,
      "Ġsupremum": 5330,
      "ĠLocally": 5331,
      "Ġdollars": 5332,
      "cri": 5333,
      "Ġ}_{": 5334,
      "tional": 5335,
      "ĠTangent": 5336,
      "ĠCategory": 5337,
      "Ġchanges": 5338,
      "Ġletter": 5339,
      "Ġsignificance": 5340,
      "UU": 5341,
      "\\{": 5342,
      "ats": 5343,
      "Ġmph": 5344,
      "Ġmaking": 5345,
      "Ġatt": 5346,
      "}}}": 5347,
      "Ġbecome": 5348,
      "ĠEmpty": 5349,
      "Norm": 5350,
      "mpot": 5351,
      "Ġful": 5352,
      "ows": 5353,
      "lying": 5354,
      "Ġvariation": 5355,
      "Ġidea": 5356,
      "degrees": 5357,
      "onical": 5358,
      "Ġinjective": 5359,
      "Ġpointwise": 5360,
      "that": 5361,
      "ises": 5362,
      "Ġground": 5363,
      "Ġdiameter": 5364,
      "Ġfourth": 5365,
      "@{": 5366,
      "stract": 5367,
      "Ġgall": 5368,
      "Ġexcept": 5369,
      "ĠGree": 5370,
      "Ġgenerator": 5371,
      "ordered": 5372,
      "}=âĪĴ": 5373,
      "Ġnonzero": 5374,
      "Ġassumption": 5375,
      "Ġpieces": 5376,
      "aper": 5377,
      "ĠBall": 5378,
      "ĠBinomial": 5379,
      "anging": 5380,
      "Ġreceiv": 5381,
      "Ġadm": 5382,
      "lish": 5383,
      "ĠCub": 5384,
      "ĠExpansion": 5385,
      "Ġsell": 5386,
      "Ġsubject": 5387,
      "Ġeverywhere": 5388,
      "ĠTranslate": 5389,
      "Ġpublished": 5390,
      "ĠDes": 5391,
      "Ġintegration": 5392,
      "Ġrequire": 5393,
      "Ġgrowth": 5394,
      "Ġcodomain": 5395,
      "Ġfall": 5396,
      "}}-": 5397,
      "known": 5398,
      "Ġorthogonal": 5399,
      "Ġcountably": 5400,
      "ĠCenter": 5401,
      "Ġapproximation": 5402,
      "Ġactual": 5403,
      "ĠMeasurable": 5404,
      "Ġfreedom": 5405,
      "Ġinvestig": 5406,
      "Ġmiddle": 5407,
      "Ġasymptote": 5408,
      "Ġnine": 5409,
      "ĠWriting": 5410,
      "ĠCong": 5411,
      "ĠBase": 5412,
      "Ġexpected": 5413,
      "ustom": 5414,
      "Ġwriting": 5415,
      "Ġcompleting": 5416,
      "ependent": 5417,
      "iers": 5418,
      "Î±": 5419,
      "ilattice": 5420,
      "off": 5421,
      "Ġprefer": 5422,
      "Ġhigher": 5423,
      "suc": 5424,
      "Ġgrad": 5425,
      "Ġclose": 5426,
      "ĠTruth": 5427,
      "ĠThat": 5428,
      "}+(": 5429,
      "Ġnever": 5430,
      "Topolog": 5431,
      "Ġirrational": 5432,
      "){": 5433,
      "bo": 5434,
      "Ġcal": 5435,
      "Ġisol": 5436,
      "Ġgame": 5437,
      "Ġconstants": 5438,
      "Ġpossi": 5439,
      "ĠNotation": 5440,
      "324": 5441,
      "man": 5442,
      "ods": 5443,
      "pens": 5444,
      "Ġsw": 5445,
      "Ġfoot": 5446,
      "ĠSelf": 5447,
      "Ġ2013": 5448,
      "Qu": 5449,
      "Subtract": 5450,
      "finite": 5451,
      "fied": 5452,
      "ms": 5453,
      "omposition": 5454,
      "Ġindivid": 5455,
      "ĠDetermin": 5456,
      "Ġcomponents": 5457,
      "ĠGreek": 5458,
      "^-$": 5459,
      "trivial": 5460,
      "Ġfaces": 5461,
      "Ġtoo": 5462,
      "ĠCalcul": 5463,
      "ash": 5464,
      "Ġcome": 5465,
      "inning": 5466,
      "Ġaccording": 5467,
      "Ġmodule": 5468,
      "{âĭ¯": 5469,
      "ians": 5470,
      "Ġvalid": 5471,
      "Ġgoing": 5472,
      "Ġcardinality": 5473,
      "ĠBijection": 5474,
      "Ġwa": 5475,
      "361": 5476,
      "Ġkey": 5477,
      "Ġobjectives": 5478,
      "Ġspecif": 5479,
      "Ġcycle": 5480,
      "ĠModulo": 5481,
      "Ġnam": 5482,
      "ĠAN": 5483,
      "ĠCard": 5484,
      "***": 5485,
      "Ġcance": 5486,
      "Ġmajor": 5487,
      "Ġmultiplied": 5488,
      "{,}": 5489,
      "At": 5490,
      "Ġdepends": 5491,
      "du": 5492,
      "Ïĥ": 5493,
      "Ġpick": 5494,
      "Ġframe": 5495,
      "ĠSolving": 5496,
      "etween": 5497,
      "ultiplic": 5498,
      "posed": 5499,
      "ably": 5500,
      "ĠUniform": 5501,
      "Ġoccurs": 5502,
      "+(âĪĴ": 5503,
      ",{": 5504,
      "Ġbought": 5505,
      "Ġpasses": 5506,
      "Ġinfinity": 5507,
      ")|": 5508,
      "Ġcircular": 5509,
      "Ġsamples": 5510,
      "101": 5511,
      "iled": 5512,
      "Ġprovide": 5513,
      "Ġasked": 5514,
      "celeration": 5515,
      "ength": 5516,
      ">}": 5517,
      "Equ": 5518,
      "ah": 5519,
      "graph": 5520,
      "ĠSta": 5521,
      "ĠNeighborhood": 5522,
      "Ġabsolutely": 5523,
      "Ġprovided": 5524,
      "chimedean": 5525,
      "ov": 5526,
      "ĠCan": 5527,
      "ĠBound": 5528,
      "Ġregression": 5529,
      "Ġstatistics": 5530,
      "ictionary": 5531,
      "ĠCombination": 5532,
      "Ġsk": 5533,
      "Ġfin": 5534,
      "Ġneg": 5535,
      "ills": 5536,
      "ĠOdd": 5537,
      "Ġperimeter": 5538,
      "Ġlocated": 5539,
      "Ġconsistent": 5540,
      "spn": 5541,
      "/{": 5542,
      "ľĵ": 5543,
      "Ġcustom": 5544,
      "ĠFibonacci": 5545,
      "iques": 5546,
      "Ġrotation": 5547,
      "Ġcharge": 5548,
      "TT": 5549,
      "gue": 5550,
      "Ġautomorphism": 5551,
      "imes": 5552,
      "111": 5553,
      "ĠGauss": 5554,
      "linear": 5555,
      "ission": 5556,
      "check": 5557,
      "wards": 5558,
      "ety": 5559,
      "ĠReciprocal": 5560,
      "ĠPoly": 5561,
      "Ġparticle": 5562,
      "Ġchosen": 5563,
      "Ġevidence": 5564,
      "Ġbottom": 5565,
      "Identify": 5566,
      "Ġclaim": 5567,
      "Euclidean": 5568,
      "Ġbetter": 5569,
      "ĠEquality": 5570,
      ";\"": 5571,
      "Ġ...": 5572,
      "Ġlengths": 5573,
      "ĠFormulation": 5574,
      "Ġreturn": 5575,
      "*!": 5576,
      ".âĢĿ": 5577,
      "Ã©": 5578,
      "Ġtenth": 5579,
      "Ġair": 5580,
      "Ġtool": 5581,
      "Ġ\\}$": 5582,
      "Ġmoves": 5583,
      "*).": 5584,
      "ls": 5585,
      "Ġtaking": 5586,
      "Ġapplication": 5587,
      "Ġdeviations": 5588,
      "hand": 5589,
      "Ġnonsingular": 5590,
      "Ġmonoid": 5591,
      "Ġsigns": 5592,
      "alois": 5593,
      "plit": 5594,
      "adox": 5595,
      "ĠStud": 5596,
      "entially": 5597,
      "continuous": 5598,
      "Ġmastery": 5599,
      "+(": 5600,
      "=$": 5601,
      "oy": 5602,
      "Ġ{(": 5603,
      "ecant": 5604,
      "Ġrank": 5605,
      "Ġmatter": 5606,
      "Ġpercenti": 5607,
      "ĠSymbol": 5608,
      "ĠGeometric": 5609,
      "ĠPrimitive": 5610,
      "mpotent": 5611,
      "Evaluate": 5612,
      "top": 5613,
      "ockwise": 5614,
      "Ġ?>*": 5615,
      "âĪ¬}_{": 5616,
      "ĠBoolean": 5617,
      "General": 5618,
      "Ġbranch": 5619,
      "ĠEnglish": 5620,
      "Ġtechniques": 5621,
      "Ġnotice": 5622,
      "ĠMakes": 5623,
      "tingu": 5624,
      ")={(": 5625,
      "Ġstrategy": 5626,
      "ABCD": 5627,
      "Ġreflexive": 5628,
      "*!/": 5629,
      "anced": 5630,
      "uctures": 5631,
      "ĠPuzzle": 5632,
      "pendence": 5633,
      "Ġconfus": 5634,
      "Ġalternative": 5635,
      "Ġcontradiction": 5636,
      "\";\"": 5637,
      ");": 5638,
      "OO": 5639,
      "Sp": 5640,
      "cmod": 5641,
      "Ġbis": 5642,
      "ĠStep": 5643,
      "conjugate": 5644,
      "rithmetic": 5645,
      "ĠVariables": 5646,
      "Ġcircumference": 5647,
      "Ġpr": 5648,
      "play": 5649,
      "ĠConvert": 5650,
      "utside": 5651,
      ">*+{": 5652,
      "meric": 5653,
      "{âĢĵ": 5654,
      "ĠWith": 5655,
      "ampling": 5656,
      "calar": 5657,
      "Ġhappens": 5658,
      "ĠSmallest": 5659,
      "Ġestimat": 5660,
      "Ġ?>*@{": 5661,
      "Pl": 5662,
      "Ġold": 5663,
      "ĠHalf": 5664,
      "ĠRandom": 5665,
      "Ġscale": 5666,
      "anning": 5667,
      "Ġeasily": 5668,
      "Ġweakly": 5669,
      "BD": 5670,
      "ning": 5671,
      "Âł": 5672,
      "ĠMag": 5673,
      "Ġstates": 5674,
      "Ġsumma": 5675,
      "ĠMathema": 5676,
      "Ġinterested": 5677,
      "Ġindividual": 5678,
      "Ġ?>*@{>}": 5679,
      "Se": 5680,
      "divides": 5681,
      "Ġbal": 5682,
      "ĠInequality": 5683,
      "Ġel": 5684,
      "ĠDictionary": 5685,
      "ands": 5686,
      "Ġlight": 5687,
      "Ġminute": 5688,
      "Ġcircuit": 5689,
      "Connected": 5690,
      "Ġapproaches": 5691,
      "ĠCommon": 5692,
      "Ġincluding": 5693,
      "Ġlogarithmic": 5694,
      "ĠPreserves": 5695,
      "bx": 5696,
      "bes": 5697,
      "Ġsal": 5698,
      "ĠPair": 5699,
      "Ġkind": 5700,
      "Ġdistingu": 5701,
      "negative": 5702,
      "otal": 5703,
      "Ġgenerally": 5704,
      "Ġsurjection": 5705,
      "Ġlabel": 5706,
      "Ġ()": 5707,
      "ectrum": 5708,
      "Ġcorrelation": 5709,
      "Not": 5710,
      "Two": 5711,
      "lev": 5712,
      "Ġparentheses": 5713,
      "Ġduring": 5714,
      "Ġoutside": 5715,
      "Ġ($": 5716,
      "ĠFer": 5717,
      "ĠFundamental": 5718,
      "}=-": 5719,
      "Ġ**@{-": 5720,
      "ĠStrictly": 5721,
      "Ġstrong": 5722,
      "Ġfrequency": 5723,
      "\\}$": 5724,
      "iota": 5725,
      "teen": 5726,
      "Ġfunctional": 5727,
      "rich": 5728,
      "Ġrules": 5729,
      "ired": 5730,
      "Ġplaced": 5731,
      "Ġgu": 5732,
      "ecial": 5733,
      "ĠDigit": 5734,
      "Ġintegrable": 5735,
      "Ġlittle": 5736,
      "uous": 5737,
      "Ġite": 5738,
      "Ġauth": 5739,
      "ison": 5740,
      "ulations": 5741,
      "Ġmess": 5742,
      "Ġinstance": 5743,
      "Ġdifferences": 5744,
      "Ġundefined": 5745,
      "ĠYes": 5746,
      "ĠDivisor": 5747,
      "Ġstret": 5748,
      "DD": 5749,
      "ik": 5750,
      "la": 5751,
      "Ġaff": 5752,
      "Ġann": 5753,
      "Ġseem": 5754,
      "Ġunitary": 5755,
      "Ġconverge": 5756,
      "Ġderived": 5757,
      "Ġhyperbola": 5758,
      "()": 5759,
      "mes": 5760,
      "ril": 5761,
      "Ġareas": 5762,
      "Ġkil": 5763,
      "Ġspherical": 5764,
      "Ġtranslate": 5765,
      "ypothesis": 5766,
      "Ġrepeated": 5767,
      "Ġ**@{-}": 5768,
      "tile": 5769,
      "erial": 5770,
      "Ġded": 5771,
      "eness": 5772,
      "ĠSch": 5773,
      "ymmetric": 5774,
      "Ġtableau": 5775,
      "Ġhappen": 5776,
      "Ġpercentile": 5777,
      "Ġmy": 5778,
      "ets": 5779,
      "Ġleave": 5780,
      "odes": 5781,
      "Ġreally": 5782,
      "Ġvaries": 5783,
      "Ġpredicate": 5784,
      "Ġincludes": 5785,
      "ĠCurve": 5786,
      "EB": 5787,
      "Mat": 5788,
      "]{{": 5789,
      "ĠDistance": 5790,
      "version": 5791,
      "nection": 5792,
      "Ġdep": 5793,
      "Ġdecision": 5794,
      "Ġstring": 5795,
      "Ġrecogn": 5796,
      "Ġfocus": 5797,
      "Ġmetacategory": 5798,
      "Ġaxes": 5799,
      "inverse": 5800,
      "}{|": 5801,
      "adjoint": 5802,
      "appa": 5803,
      "ĠInduced": 5804,
      "stituting": 5805,
      "besgue": 5806,
      "cy": 5807,
      "iable": 5808,
      "ope": 5809,
      "pond": 5810,
      "ref": 5811,
      "otangent": 5812,
      "achine": 5813,
      "ech": 5814,
      "Ġpreser": 5815,
      "Ġsignificant": 5816,
      "_*": 5817,
      "Ġpuzzle": 5818,
      "ĠAmeric": 5819,
      "Ġintern": 5820,
      "Ġsurjective": 5821,
      "Ġparallelogram": 5822,
      "Ġmodels": 5823,
      "Ġpermutations": 5824,
      "pence": 5825,
      "enting": 5826,
      "ĠAc": 5827,
      "Ġarri": 5828,
      "Ġphr": 5829,
      "Ġunderstand": 5830,
      "Ġwind": 5831,
      "Ġsketch": 5832,
      "Ġlow": 5833,
      "Ġhowever": 5834,
      "Ġmem": 5835,
      "Ġuncountable": 5836,
      "verses": 5837,
      "Ġcircles": 5838,
      "Box": 5839,
      "atic": 5840,
      "ling": 5841,
      "ĠDraw": 5842,
      "inally": 5843,
      "ĠGalois": 5844,
      "Ġmatch": 5845,
      "Ġsquared": 5846,
      "Ġindicate": 5847,
      "Ġplanes": 5848,
      "orld": 5849,
      "entim": 5850,
      "umer": 5851,
      "Ġinstruct": 5852,
      "ĠLength": 5853,
      "ecting": 5854,
      "Ġmoving": 5855,
      "Ġtheorems": 5856,
      "ĠPowers": 5857,
      "ĠCyclic": 5858,
      "Ġbelie": 5859,
      "Ġdiscovered": 5860,
      "Ge": 5861,
      "ury": 5862,
      "ising": 5863,
      "Ġpaid": 5864,
      "acompact": 5865,
      "Ġfamil": 5866,
      "ĠDouble": 5867,
      "Ġlie": 5868,
      "Ġrather": 5869,
      "Ġunknown": 5870,
      "Ġintercepts": 5871,
      "selves": 5872,
      "Ġseparable": 5873,
      "eep": 5874,
      "Ġblock": 5875,
      "Ġuniformly": 5876,
      "Ġcalories": 5877,
      "Right": 5878,
      "Ġbit": 5879,
      "Ġminim": 5880,
      "Ġidentities": 5881,
      "{âĪĴ}âĪŀ": 5882,
      "Ap": 5883,
      "All": 5884,
      "Point": 5885,
      "defined": 5886,
      "Ġdy": 5887,
      "ĠSome": 5888,
      "ĠSigma": 5889,
      "ĠIts": 5890,
      "Ġreach": 5891,
      "Ġrepor": 5892,
      "Ġalmost": 5893,
      "ĠCoef": 5894,
      "Img": 5895,
      "ĠMaximal": 5896,
      "ade": 5897,
      "ood": 5898,
      "Ġcalculus": 5899,
      "tended": 5900,
      "].$": 5901,
      "Ġce": 5902,
      "ĠCountably": 5903,
      "Ġonline": 5904,
      "rating": 5905,
      "ĠUpper": 5906,
      "Ġapplies": 5907,
      "...": 5908,
      "Ġassociative": 5909,
      "Arbitrary": 5910,
      "Ċĉĉĉĉĉĉ": 5911,
      "))$": 5912,
      "gy": 5913,
      "Ġstop": 5914,
      "Ġsubse": 5915,
      "Ġnear": 5916,
      "ĠTransitive": 5917,
      "Â°$": 5918,
      "Ġcentered": 5919,
      "Ġallows": 5920,
      "Ġphysical": 5921,
      "Ġpotential": 5922,
      "ahedron": 5923,
      "ĠProjection": 5924,
      "Ġthough": 5925,
      "continu": 5926,
      "Le": 5927,
      "gs": 5928,
      "arting": 5929,
      "deriv": 5930,
      "Ġquar": 5931,
      "Ġinterior": 5932,
      "Ġmeasurement": 5933,
      "ordering": 5934,
      "Ġuniversal": 5935,
      "Formulation": 5936,
      "detname": 5937,
      "ched": 5938,
      "ords": 5939,
      "enne": 5940,
      "aginary": 5941,
      "Ġ${({": 5942,
      "ĠStandard": 5943,
      "Ġunderlying": 5944,
      "ĠOperations": 5945,
      "'t": 5946,
      "={(": 5947,
      "dA": 5948,
      "ugmented": 5949,
      "ĠSubsets": 5950,
      "{$}": 5951,
      "Ġearlier": 5952,
      "ĠCardinal": 5953,
      "Comb": 5954,
      "kappa": 5955,
      "Ġsampling": 5956,
      "ĠPart": 5957,
      "}}{(": 5958,
      "Ġproportions": 5959,
      "shillings": 5960,
      "Ġpassing": 5961,
      "Ha": 5962,
      "year": 5963,
      "ĠTime": 5964,
      "ĠExt": 5965,
      "ĠFrom": 5966,
      "Ġpresent": 5967,
      "Ġmorphisms": 5968,
      "Ġimmediately": 5969,
      "Ġfulf": 5970,
      "lu": 5971,
      "Ġbar": 5972,
      "iffic": 5973,
      "ĠFunctor": 5974,
      "ouri": 5975,
      "ĠLower": 5976,
      "ĠReview": 5977,
      ")=âĮ©": 5978,
      "Integ": 5979,
      "Ġconvergence": 5980,
      "ĠAssociative": 5981,
      "Vector": 5982,
      "Ġflow": 5983,
      "ital": 5984,
      "Ġterminal": 5985,
      "ternal": 5986,
      "Ġplayer": 5987,
      "ptotes": 5988,
      "Ġtreat": 5989,
      "ids": 5990,
      "Ïķ": 5991,
      "Ġpage": 5992,
      "Ġpaper": 5993,
      "Ġdu": 5994,
      "ddots": 5995,
      "}$-": 5996,
      "ays": 5997,
      "ondition": 5998,
      "ĠMatrices": 5999,
      "{:}$": 6000,
      "cent": 6001,
      "Ġbus": 6002,
      "Ġpenn": 6003,
      "Ġremo": 6004,
      "}{âĪ¬": 6005,
      "Ġstructures": 6006,
      "Ġsections": 6007,
      "Ordered": 6008,
      "ĠLaplace": 6009,
      "ultiplicative": 6010,
      "=(": 6011,
      "Linear": 6012,
      "rema": 6013,
      "Ġweigh": 6014,
      "Ġworking": 6015,
      "Ġconjugate": 6016,
      "ersenne": 6017,
      "ĠGCF": 6018,
      "})}{": 6019,
      "Ġindeed": 6020,
      "creasing": 6021,
      "ABC": 6022,
      "expect": 6023,
      "Ġcounters": 6024,
      "Ġproduce": 6025,
      "Ġsugges": 6026,
      "ĠRoots": 6027,
      "vmatrix": 6028,
      "Ġpractice": 6029,
      "Ġdiffic": 6030,
      "Ġquick": 6031,
      "Ġsubfield": 6032,
      "Ġkernel": 6033,
      "proxim": 6034,
      "lestial": 6035,
      "Ġdistributed": 6036,
      "Ġtend": 6037,
      "ler": 6038,
      "ĠRow": 6039,
      "ĠRest": 6040,
      "sto": 6041,
      "ĠProbability": 6042,
      "Ġjob": 6043,
      "partialx": 6044,
      "Ġinvol": 6045,
      "ĠHyperbolic": 6046,
      "CL": 6047,
      "vations": 6048,
      "isted": 6049,
      "Ġface": 6050,
      "}^{+": 6051,
      "ticular": 6052,
      "Ġcard": 6053,
      "Ġdisplay": 6054,
      "ĠĊĠĊĠĊĊĠĊĠĊ": 6055,
      "bility": 6056,
      "omino": 6057,
      "Ġtrain": 6058,
      "Ġiden": 6059,
      "Ġindicated": 6060,
      "Ġdefinite": 6061,
      "but": 6062,
      "Ġ)$": 6063,
      "Ġharmonic": 6064,
      "ĠAnd": 6065,
      "Ġlonger": 6066,
      "Ġbuilding": 6067,
      "Ġbreak": 6068,
      "Ġounces": 6069,
      "Ġspecified": 6070,
      "Ġhomogeneous": 6071,
      "Ind": 6072,
      "book": 6073,
      "vent": 6074,
      "Ġdimes": 6075,
      "ĠII": 6076,
      "ĠArithmetic": 6077,
      "ĠChe": 6078,
      "Ġresid": 6079,
      "mapsto": 6080,
      "Ġcorresponds": 6081,
      "Ġfigures": 6082,
      "Ġmedial": 6083,
      "Ġâī¤": 6084,
      "Next": 6085,
      "ĠFermat": 6086,
      "Countable": 6087,
      "}]$": 6088,
      "acy": 6089,
      "Ġmut": 6090,
      "ĠCent": 6091,
      "ĠHerm": 6092,
      "ĠLines": 6093,
      "subgroup": 6094,
      "loor": 6095,
      "Ġdivisors": 6096,
      "Ġcentral": 6097,
      "ĠFraction": 6098,
      "bre": 6099,
      "Ġcentim": 6100,
      "Ġpseud": 6101,
      "Ġnature": 6102,
      "icated": 6103,
      "rown": 6104,
      "Ġview": 6105,
      "450": 6106,
      "880": 6107,
      "ĠSame": 6108,
      "Ġendpoints": 6109,
      "com": 6110,
      "ep": 6111,
      "ks": 6112,
      "Ġser": 6113,
      "enuse": 6114,
      "ĠSingle": 6115,
      "ĠInjection": 6116,
      "Ġinequalities": 6117,
      "ification": 6118,
      "ĠMed": 6119,
      "otone": 6120,
      "Ġproced": 6121,
      "Ġclos": 6122,
      "scrib": 6123,
      "ĠGenerated": 6124,
      "ĠArc": 6125,
      "Ġflux": 6126,
      "-(âĪĴ": 6127,
      "ez": 6128,
      "when": 6129,
      "Ġmis": 6130,
      "ĠDense": 6131,
      "Ġcanonical": 6132,
      "ĠRemember": 6133,
      "uded": 6134,
      "ĠFractions": 6135,
      "ourier": 6136,
      "more": 6137,
      "Ġavailable": 6138,
      "Ġbro": 6139,
      "Ġmoment": 6140,
      "Ġconjug": 6141,
      "Ġothers": 6142,
      "Ġreflection": 6143,
      "Ġproduced": 6144,
      "Ġdivergence": 6145,
      "ĠCongruence": 6146,
      "Stax": 6147,
      "Take": 6148,
      "bers": 6149,
      "gain": 6150,
      "oph": 6151,
      "};": 6152,
      "Ġreject": 6153,
      "usive": 6154,
      "icy": 6155,
      "ĠEn": 6156,
      "ograph": 6157,
      "#####": 6158,
      "coordinate": 6159,
      "Ġintroduced": 6160,
      "ĠStatis": 6161,
      "RM": 6162,
      "chelon": 6163,
      "dbinom": 6164,
      "then": 6165,
      "}&=": 6166,
      "olumn": 6167,
      "ĠPermut": 6168,
      "urns": 6169,
      "350": 6170,
      "ĠLebesgue": 6171,
      "abilities": 6172,
      "ccc": 6173,
      "Ġdevelop": 6174,
      "=[": 6175,
      "arb": 6176,
      "ĠPolar": 6177,
      "efinite": 6178,
      "Ġalpha": 6179,
      "Ġsingleton": 6180,
      "Ġsubd": 6181,
      "ĠDoes": 6182,
      "ĠMath": 6183,
      "ĠIndex": 6184,
      "cribe": 6185,
      "ĠStatement": 6186,
      "Ġdefining": 6187,
      "Ġexclusive": 6188,
      "Ġleads": 6189,
      "ccording": 6190,
      "izer": 6191,
      "sided": 6192,
      "Ġgenerating": 6193,
      "partialy": 6194,
      "oldpence": 6195,
      "ĠFactors": 6196,
      "Ġrequires": 6197,
      "Ġscalars": 6198,
      "Ġconcern": 6199,
      "relcomp": 6200,
      "Ġeigenvector": 6201,
      ":**": 6202,
      "Dist": 6203,
      "pes": 6204,
      "âľĵ": 6205,
      "Ġtook": 6206,
      "Inter": 6207,
      "ĠKind": 6208,
      "ĠIndependent": 6209,
      "ĠAssume": 6210,
      "Follow": 6211,
      "tivity": 6212,
      "Ġcm": 6213,
      "ultaneous": 6214,
      "ĠEvalu": 6215,
      "indrom": 6216,
      "matrixrep": 6217,
      "Ġsubring": 6218,
      "pection": 6219,
      "Ġarr": 6220,
      "ordinates": 6221,
      ")+(": 6222,
      "ĠRepresentation": 6223,
      "Ġspecifically": 6224,
      "''": 6225,
      "//": 6226,
      "Open": 6227,
      "[{": 6228,
      "Ġfac": 6229,
      "Ġproceed": 6230,
      "Ġconic": 6231,
      "osing": 6232,
      "Ġ\\,}_{": 6233,
      "Ġspan": 6234,
      "Ġnode": 6235,
      "Ġinspection": 6236,
      "Ġobservations": 6237,
      "Ġreceived": 6238,
      "GH": 6239,
      "rian": 6240,
      "ĠMersenne": 6241,
      "124": 6242,
      "ilinear": 6243,
      "Ġcorrespond": 6244,
      "itian": 6245,
      ")^": 6246,
      "iented": 6247,
      "sistent": 6248,
      "}\\,": 6249,
      "Ġdon": 6250,
      "Ġmulti": 6251,
      "ĠMan": 6252,
      "Ġcompl": 6253,
      "plement": 6254,
      "Ġstrict": 6255,
      "ĠDistributive": 6256,
      "igure": 6257,
      "ĠBC": 6258,
      "Ġbuild": 6259,
      "Ġcompound": 6260,
      "Ġdistributive": 6261,
      "Ġinfimum": 6262,
      "echan": 6263,
      "With": 6264,
      "Ġyes": 6265,
      "Ġmaterial": 6266,
      "})-": 6267,
      "ĠComposition": 6268,
      "ĠFormulas": 6269,
      "DF": 6270,
      "{âĢ¦": 6271,
      "Ġsales": 6272,
      "alindrom": 6273,
      "ĠCount": 6274,
      "quentially": 6275,
      "Ġ${(âĪĴ": 6276,
      "Ġidentified": 6277,
      "Ġacceleration": 6278,
      "ĠOpenStax": 6279,
      "Ġmathematic": 6280,
      "Ġcounter": 6281,
      "ĠLatin": 6282,
      "Ġequilateral": 6283,
      "Ġ--": 6284,
      "ascal": 6285,
      "istribution": 6286,
      "ĠName": 6287,
      "Ġpole": 6288,
      "llog": 6289,
      "Ġsemilattice": 6290,
      "ĠInterpret": 6291,
      "ĠDifferential": 6292,
      "Ġquantities": 6293,
      "ifth": 6294,
      "Ġexplicit": 6295,
      "Ġhyperbolic": 6296,
      "Ġdiverges": 6297,
      "ĠStudent": 6298,
      ")$.": 6299,
      "mo": 6300,
      "yz": 6301,
      "Ġyards": 6302,
      "atern": 6303,
      "Ġradicals": 6304,
      "Ġcriter": 6305,
      "ĠSurjection": 6306,
      "llogism": 6307,
      "iting": 6308,
      "lind": 6309,
      "Ġ$\\{": 6310,
      "Ġboolean": 6311,
      "Ġorbit": 6312,
      "Ġroll": 6313,
      "Ġempl": 6314,
      "}<": 6315,
      "nder": 6316,
      "ĠAction": 6317,
      "Ġoriented": 6318,
      "unc": 6319,
      "Ġmultiples": 6320,
      "ĠBer": 6321,
      "ĠMonoid": 6322,
      "ĠContain": 6323,
      "Ġgoes": 6324,
      "Ġradians": 6325,
      "Ġdecimals": 6326,
      "bigcap": 6327,
      "rence": 6328,
      "Class": 6329,
      "Ġdifficult": 6330,
      "://": 6331,
      "ones": 6332,
      "Ġstated": 6333,
      "see": 6334,
      "Ġvac": 6335,
      "atio": 6336,
      "izing": 6337,
      "Ġrings": 6338,
      "ĠCommunity": 6339,
      "ĠDifferenti": 6340,
      "richlet": 6341,
      "haps": 6342,
      "{âĢ": 6343,
      "113": 6344,
      "Ġcompar": 6345,
      "ĠStates": 6346,
      "Ġlikely": 6347,
      "Ġinvolving": 6348,
      "Ġapplying": 6349,
      "Ġcubic": 6350,
      "{âĢĵ}{": 6351,
      "Given": 6352,
      "orn": 6353,
      "ĠProposition": 6354,
      "}},": 6355,
      "Ġunital": 6356,
      "Ġhypothe": 6357,
      "Distribute": 6358,
      "nab": 6359,
      "ware": 6360,
      "{?": 6361,
      "Ġpent": 6362,
      "Ġdue": 6363,
      "Ġthing": 6364,
      "Ġbuy": 6365,
      "ativity": 6366,
      "izes": 6367,
      "ĠUnited": 6368,
      "Continuous": 6369,
      "ĠIntegrals": 6370,
      "ĠImpl": 6371,
      "Ġcancellable": 6372,
      "&-": 6373,
      "Of": 6374,
      "vit": 6375,
      "ĠScalar": 6376,
      "ĠDimension": 6377,
      "ĠFourier": 6378,
      "134": 6379,
      "ĠURM": 6380,
      "rapez": 6381,
      "Ġproofs": 6382,
      "Archimedean": 6383,
      "Ġexamine": 6384,
      "succeq": 6385,
      ")}=": 6386,
      "orel": 6387,
      "Ġcommensurable": 6388,
      "cloid": 6389,
      "Ġspent": 6390,
      "och": 6391,
      "Ġchart": 6392,
      "{/}{": 6393,
      "Ġfactored": 6394,
      "Ġassumed": 6395,
      "Ġantideriv": 6396,
      "ming": 6397,
      "mark": 6398,
      "ĠIncreasing": 6399,
      "116": 6400,
      "Ġthemselves": 6401,
      "antor": 6402,
      "Ġfactoring": 6403,
      "Ġfoci": 6404,
      ",âĪŀ)$": 6405,
      "Ġsyn": 6406,
      "Follows": 6407,
      "Square": 6408,
      "Ġdrop": 6409,
      "Ġgas": 6410,
      "Ġele": 6411,
      "Int": 6412,
      "Ġasymptotes": 6413,
      "Ġencl": 6414,
      "Ġparametric": 6415,
      "ĠHermitian": 6416,
      ".,": 6417,
      "Ġtail": 6418,
      "tein": 6419,
      "ubtraction": 6420,
      "irth": 6421,
      "Ġshor": 6422,
      "550": 6423,
      "ĠAlgorithm": 6424,
      "Ġarrow": 6425,
      "arning": 6426,
      "ruent": 6427,
      "Ġcoinc": 6428,
      "Ġquarters": 6429,
      "ttp": 6430,
      "ĠParallel": 6431,
      "vature": 6432,
      "hest": 6433,
      "oll": 6434,
      "rig": 6435,
      "Ġnick": 6436,
      "ĠDefine": 6437,
      "otop": 6438,
      "Ġconcepts": 6439,
      "otimes": 6440,
      "Ġthroughout": 6441,
      "ĠIsomorphic": 6442,
      "dotsc": 6443,
      "Ġeng": 6444,
      "Ġinteresting": 6445,
      "Defined": 6446,
      "Other": 6447,
      "every": 6448,
      "pound": 6449,
      "za": 6450,
      "Ġtables": 6451,
      "Ġaugmented": 6452,
      "atest": 6453,
      "Ġmixed": 6454,
      "ĠFilter": 6455,
      "ared": 6456,
      "ĠTotally": 6457,
      "Ġthings": 6458,
      ")({": 6459,
      "innerproduct": 6460,
      "Ġeigenvalues": 6461,
      "Ġreview": 6462,
      "Ġcoprime": 6463,
      "ĠTerms": 6464,
      "Zero": 6465,
      "|<": 6466,
      "reme": 6467,
      "oring": 6468,
      "Ġdr": 6469,
      "Ġdot": 6470,
      "115": 6471,
      "Ġorgan": 6472,
      "âĪª": 6473,
      "ormal": 6474,
      "aught": 6475,
      "ĠPolynomials": 6476,
      "Ġsimplified": 6477,
      "ĠSurface": 6478,
      "Ġscores": 6479,
      "800": 6480,
      "Ġfundamental": 6481,
      "sequently": 6482,
      "ĠUnity": 6483,
      "Ġideals": 6484,
      "Ġhomeomorphism": 6485,
      "Ġillustrate": 6486,
      "Ġwomen": 6487,
      "lindrical": 6488,
      "'_": 6489,
      "âĦ": 6490,
      "Ġcaus": 6491,
      "icense": 6492,
      "Ġintercept": 6493,
      "Ġinfinitely": 6494,
      "mn": 6495,
      "Ġ).": 6496,
      "inf": 6497,
      "Ġremem": 6498,
      "aded": 6499,
      "netic": 6500,
      "Ġcalculating": 6501,
      "ĠGeometry": 6502,
      "Ġpurch": 6503,
      "ĠChoose": 6504,
      "Ġcategories": 6505,
      "Ġidentical": 6506,
      "${": 6507,
      "Dis": 6508,
      "Ġpress": 6509,
      "Ġconnection": 6510,
      "243": 6511,
      "ager": 6512,
      "echelon": 6513,
      "ĠOf": 6514,
      "sinh": 6515,
      "cosh": 6516,
      "Ġhex": 6517,
      "Ġmagic": 6518,
      "Ġmultiplicity": 6519,
      "Ġlearned": 6520,
      "Ġestablish": 6521,
      "Topology": 6522,
      "Hom": 6523,
      "number": 6524,
      "son": 6525,
      "olds": 6526,
      "Ġsing": 6527,
      "142": 6528,
      "ĠPh": 6529,
      "time": 6530,
      "arden": 6531,
      "Ġadv": 6532,
      "Ġerrors": 6533,
      "Ġseparate": 6534,
      "Ordering": 6535,
      "ĠSupremum": 6536,
      "Ġuniverse": 6537,
      "Ġcombinations": 6538,
      "Ġphrase": 6539,
      "Ġcomplicated": 6540,
      "Are": 6541,
      "Group": 6542,
      "Its": 6543,
      "Ġ$*": 6544,
      "ĠHypothesis": 6545,
      "Ġcovariant": 6546,
      "ister": 6547,
      "Ġkeep": 6548,
      "Ġarrange": 6549,
      "Conver": 6550,
      "Ġpreced": 6551,
      "ĠTriangular": 6552,
      "ĠResult": 6553,
      "ĠModel": 6554,
      "Ġcopy": 6555,
      "ĠIrrational": 6556,
      "ĠReflexive": 6557,
      "While": 6558,
      "Ġmembers": 6559,
      "Ġcelestial": 6560,
      "Sum": 6561,
      "ails": 6562,
      "ina": 6563,
      "aten": 6564,
      "Ġdef": 6565,
      "Ġsale": 6566,
      "Ġfair": 6567,
      "Ġcomes": 6568,
      "ĠLind": 6569,
      "Ġadditional": 6570,
      "Ġorient": 6571,
      "erex": 6572,
      "venue": 6573,
      "âĵĵ": 6574,
      "\\,}": 6575,
      "ĊĊĠĊĊĠĊ": 6576,
      "Ġdecide": 6577,
      "Ġfinitely": 6578,
      "Ġpercentage": 6579,
      "ĠApproxim": 6580,
      "Ġhelpful": 6581,
      "Ġincluded": 6582,
      "Ġprecisely": 6583,
      "ĠDeterminant": 6584,
      "null": 6585,
      "Ġfi": 6586,
      "ĠSketch": 6587,
      "123": 6588,
      "ĠFre": 6589,
      "ĠRed": 6590,
      "ĠLocal": 6591,
      "ĠAND": 6592,
      "ĠCardinality": 6593,
      "Ġremember": 6594,
      "$).": 6595,
      "And": 6596,
      "See": 6597,
      "ras": 6598,
      "Ġ~": 6599,
      "Ġcup": 6600,
      "umann": 6601,
      "106": 6602,
      "ressing": 6603,
      "ideal": 6604,
      "ĠLogic": 6605,
      "Ġliter": 6606,
      "Ġrevolution": 6607,
      "Ġestablished": 6608,
      "ĠNewton": 6609,
      "bal": 6610,
      "Ġhttp": 6611,
      "}{{(": 6612,
      "Ġatom": 6613,
      "ĠBl": 6614,
      "Ġcompany": 6615,
      "ounting": 6616,
      "Ġdecomposition": 6617,
      "rilateral": 6618,
      "=}": 6619,
      "uting": 6620,
      "Ġmachine": 6621,
      "}{âĪĴ": 6622,
      "ĠOrt": 6623,
      "ĠComple": 6624,
      "Ġnone": 6625,
      "ĠPointwise": 6626,
      "ĠNeumann": 6627,
      "{?}{": 6628,
      "cover": 6629,
      "Ġworth": 6630,
      "118": 6631,
      "tood": 6632,
      "ĠFort": 6633,
      "Ġdesign": 6634,
      "Ġconditional": 6635,
      "Ġprovides": 6636,
      "Ġlearning": 6637,
      "Ġmutually": 6638,
      "Do": 6639,
      "cles": 6640,
      "ĠPo": 6641,
      "Ġiter": 6642,
      "udes": 6643,
      "Ġdistributions": 6644,
      "iqueness": 6645,
      "Ġconserv": 6646,
      "uclid": 6647,
      "Ġindexing": 6648,
      "Ġbeginning": 6649,
      "Ġordinals": 6650,
      "Ġcontradict": 6651,
      "Ġhypotheses": 6652,
      "Ġconservative": 6653,
      "cis": 6654,
      "Ġbrac": 6655,
      "Ġdeta": 6656,
      "alog": 6657,
      "Ġlisted": 6658,
      "Ġcond": 6659,
      "Ġshif": 6660,
      "Ġpost": 6661,
      "three": 6662,
      "ĠOut": 6663,
      "Ġtransl": 6664,
      "ĠâĢĺ": 6665,
      "Ġstarts": 6666,
      "Combine": 6667,
      "brevi": 6668,
      "Ġprocedure": 6669,
      "rand": 6670,
      "yram": 6671,
      "arch": 6672,
      "Ġ1050": 6673,
      "Ġ{$": 6674,
      "thon": 6675,
      "}}.": 6676,
      "ĠConsecutive": 6677,
      "Ġabs": 6678,
      "Ġcubes": 6679,
      "Ġconvenient": 6680,
      "ĠGaussian": 6681,
      "%$": 6682,
      "cting": 6683,
      "ixt": 6684,
      "prime": 6685,
      "Ġsaw": 6686,
      "Ġet": 6687,
      "Ġnumerical": 6688,
      "They": 6689,
      "Ġshort": 6690,
      "ĠDirichlet": 6691,
      "Ġminor": 6692,
      "aries": 6693,
      "âĪŀ,": 6694,
      "Ġindependence": 6695,
      "precsim": 6696,
      "Ġcontinued": 6697,
      "Ġsatisfying": 6698,
      "ĠIrreducible": 6699,
      "Ġimproper": 6700,
      "Ġinternal": 6701,
      "Determ": 6702,
      "rs": 6703,
      "access": 6704,
      "Ġ1026": 6705,
      "Ġselect": 6706,
      "Ġcharacter": 6707,
      "Ġvertically": 6708,
      "Ġprem": 6709,
      "Ġrepresentations": 6710,
      "Ġmonomial": 6711,
      "ĠDecimal": 6712,
      "Ġprobabilities": 6713,
      "Non": 6714,
      "Ġenter": 6715,
      "Ġgrams": 6716,
      "umul": 6717,
      "Ġresear": 6718,
      "}^{{": 6719,
      "mathrel": 6720,
      "ounter": 6721,
      "radiction": 6722,
      "ĠGroups": 6723,
      ")+{": 6724,
      "{-}$": 6725,
      "Ġexistence": 6726,
      "ibri": 6727,
      "Ġhighest": 6728,
      "Ġintersects": 6729,
      "Ġparameters": 6730,
      "Ġscienti": 6731,
      "Ġestimated": 6732,
      "ĠSingleton": 6733,
      "Ġnickels": 6734,
      "PQ": 6735,
      "]^*": 6736,
      "aut": 6737,
      "ĠTables": 6738,
      "175": 6739,
      "mathit": 6740,
      "mathcal": 6741,
      "thing": 6742,
      "ĠBook": 6743,
      "possible": 6744,
      "},-": 6745,
      "Ġfactorization": 6746,
      "________________": 6747,
      "Ġunderstood": 6748,
      "ĠVertical": 6749,
      "Ġgallons": 6750,
      "Metric": 6751,
      "ience": 6752,
      "integ": 6753,
      "acing": 6754,
      "Ġepimorphism": 6755,
      "Ġ2000": 6756,
      "Ġaliqu": 6757,
      "âĪĪ": 6758,
      "uck": 6759,
      "ogram": 6760,
      "ĠConjecture": 6761,
      "Ġchanging": 6762,
      "Ġdisk": 6763,
      "Product": 6764,
      "parent": 6765,
      "ulli": 6766,
      "noulli": 6767,
      "Ġagainst": 6768,
      "Ġcategorical": 6769,
      "Ġemploy": 6770,
      "âĦĿ": 6771,
      "(.": 6772,
      ")$,": 6773,
      "FD": 6774,
      "bs": 6775,
      "}&&\\\\": 6776,
      "Ġ1080": 6777,
      "icted": 6778,
      "ĠReg": 6779,
      "ĠCharacteristic": 6780,
      "Ġeigenvalue": 6781,
      "Ġcodew": 6782,
      "ĠGreen": 6783,
      "Ġquarter": 6784,
      "ĠDegree": 6785,
      "Finite": 6786,
      "ious": 6787,
      "Ġtank": 6788,
      "ucing": 6789,
      "Ġindicates": 6790,
      "ĠCube": 6791,
      "Ġrecognize": 6792,
      "Can": 6793,
      "go": 6794,
      "gcd": 6795,
      "{.}$": 6796,
      "|*": 6797,
      "nsp": 6798,
      "Ġinclusion": 6799,
      "ĠCantor": 6800,
      "Ġsubtracting": 6801,
      "Ġ***": 6802,
      "piped": 6803,
      "Ġspecify": 6804,
      "Ġblue": 6805,
      "Ġcosets": 6806,
      "ĠChoice": 6807,
      "lepiped": 6808,
      "Ġfill": 6809,
      "Ġworld": 6810,
      "ĠMultiplicative": 6811,
      "ĠRect": 6812,
      "Ġsummation": 6813,
      "ĠProg": 6814,
      "ĠMatroid": 6815,
      "complete": 6816,
      "Ġsupport": 6817,
      "urthermore": 6818,
      "ĠRelations": 6819,
      "Ġprofit": 6820,
      "Ġ_______": 6821,
      "ĠRestriction": 6822,
      "Log": 6823,
      "Me": 6824,
      "|=": 6825,
      "ĠSlope": 6826,
      "Ġ000": 6827,
      "Ġ1018": 6828,
      "asic": 6829,
      "Ġroad": 6830,
      "ĠChain": 6831,
      "Ġ?<": 6832,
      "Ġconvention": 6833,
      "board": 6834,
      "Ġdistinguish": 6835,
      "Ġquickly": 6836,
      "Ġcriteria": 6837,
      "faces": 6838,
      "ining": 6839,
      "atures": 6840,
      "Ġmile": 6841,
      "ites": 6842,
      "ĠEd": 6843,
      "138": 6844,
      "Ġattem": 6845,
      "ĠNull": 6846,
      "ĠVolume": 6847,
      "Ġrepresenting": 6848,
      "ĊĊĠĊĠĊĠĊ": 6849,
      "Ġideas": 6850,
      "partialz": 6851,
      "gets": 6852,
      "Ġinvest": 6853,
      "Ġtravels": 6854,
      "Ġphysics": 6855,
      "ĠContinuity": 6856,
      "Ġmidpoint": 6857,
      "erexample": 6858,
      "back": 6859,
      "function": 6860,
      "iar": 6861,
      "ullet": 6862,
      "Ġrevenue": 6863,
      "index": 6864,
      "ĠRead": 6865,
      "efore": 6866,
      "Ġapart": 6867,
      "elÃ¶": 6868,
      "ĠUncountable": 6869,
      "Ġsecant": 6870,
      "titude": 6871,
      "hedral": 6872,
      "Ġcentury": 6873,
      "isson": 6874,
      "Ġevaluating": 6875,
      "Ġstretch": 6876,
      "artingale": 6877,
      "}^{+}}{": 6878,
      "elÃ¶f": 6879,
      "Ġ},": 6880,
      "ĠSide": 6881,
      "{{({": 6882,
      "Remember": 6883,
      "ĠSubgroups": 6884,
      "Ġlogarithms": 6885,
      "Ġdefines": 6886,
      "ĠCompletely": 6887,
      "Ġreasonable": 6888,
      "Ġcontinue": 6889,
      "Ġillustr": 6890,
      "Ġmillion": 6891,
      "Ġearned": 6892,
      "Ġauthors": 6893,
      "Ġmessage": 6894,
      "thonormal": 6895,
      "-(": 6896,
      "Such": 6897,
      "cument": 6898,
      "vable": 6899,
      "ros": 6900,
      "ĠCance": 6901,
      "Ġcalculation": 6902,
      "cendental": 6903,
      "ĠWeakly": 6904,
      "ĠAmerican": 6905,
      "Ġsubdivision": 6906,
      "After": 6907,
      "Mod": 6908,
      "bot": 6909,
      "cur": 6910,
      "lf": 6911,
      "Ġener": 6912,
      "older": 6913,
      "Ġprinciple": 6914,
      "Ġinputs": 6915,
      "Ġcontent": 6916,
      "gebras": 6917,
      "chie": 6918,
      "Ġshowing": 6919,
      "Ġradic": 6920,
      "ighborhoods": 6921,
      "Ġsatisfied": 6922,
      "ĠPerpendicular": 6923,
      "()`": 6924,
      "Ġreported": 6925,
      "ging": 6926,
      "iness": 6927,
      "Ġbab": 6928,
      "Ġsource": 6929,
      "127": 6930,
      "ĠAdditive": 6931,
      "131": 6932,
      "ĠPascal": 6933,
      "âĪ©": 6934,
      "Ġsubsequence": 6935,
      "ĠParadox": 6936,
      "ront": 6937,
      "Ġexpand": 6938,
      "Ġdeveloped": 6939,
      "ĠDegrees": 6940,
      "Ġadmits": 6941,
      "Ġenergy": 6942,
      "cong": 6943,
      "dec": 6944,
      "down": 6945,
      "dinary": 6946,
      "Ġtrapez": 6947,
      "entric": 6948,
      "tailed": 6949,
      "Ġdecay": 6950,
      "aturally": 6951,
      "ĠInterior": 6952,
      "Ġdemonstrate": 6953,
      "ĠLindelÃ¶f": 6954,
      "AS": 6955,
      "Differ": 6956,
      "Rel": 6957,
      "ptions": 6958,
      "Ġachie": 6959,
      "ined": 6960,
      "plan": 6961,
      "etra": 6962,
      "Ġ1040": 6963,
      "ĠEnd": 6964,
      "Ġangular": 6965,
      "Ġcontour": 6966,
      "ĠConstruct": 6967,
      "Ġdescri": 6968,
      "oprime": 6969,
      "ĠElementary": 6970,
      "ĠTriangles": 6971,
      "ĠSystems": 6972,
      "Ġbelong": 6973,
      "ĠSeparable": 6974,
      "Ġcongruence": 6975,
      "Ġquartile": 6976,
      "}{âĪ¬}": 6977,
      "ibrium": 6978,
      "025": 6979,
      "ader": 6980,
      "bi": 6981,
      "bys": 6982,
      "migroup": 6983,
      "Ġtax": 6984,
      "hev": 6985,
      "Ġparen": 6986,
      "Ġearth": 6987,
      "Ġ1020": 6988,
      "Ġ1016": 6989,
      "ima": 6990,
      "Ġconsequence": 6991,
      "max": 6992,
      "ĠOp": 6993,
      "Ġchi": 6994,
      "consistent": 6995,
      "Ġhypotenuse": 6996,
      "placement": 6997,
      "Ġinterpretations": 6998,
      "byshev": 6999,
      ">(.": 7000,
      "Car": 7001,
      "|{": 7002,
      "usti": 7003,
      "Ġlatter": 7004,
      "hoose": 7005,
      "âĢ²(": 7006,
      "Ċĉĉĉ": 7007,
      "Ġcreated": 7008,
      "Ġproduces": 7009,
      "mediate": 7010,
      "}^{âĢ³}(": 7011,
      "Ġeliminate": 7012,
      "model": 7013,
      "Ġ?<>(.": 7014,
      "))=": 7015,
      "))}^{": 7016,
      "def": 7017,
      "rong": 7018,
      "|+": 7019,
      "Ġske": 7020,
      "Ġleg": 7021,
      "Ġ1056": 7022,
      "ĠDen": 7023,
      "Ġlot": 7024,
      "129": 7025,
      "Ġ1400": 7026,
      "ĠFe": 7027,
      "inement": 7028,
      "ĠPrincipal": 7029,
      "ĠOther": 7030,
      "Ġrelates": 7031,
      "ĠReals": 7032,
      "ĠRecursive": 7033,
      "Ġlaws": 7034,
      "Ġunderstanding": 7035,
      "Ġanalytic": 7036,
      "ĠDescribe": 7037,
      "ĠMathematical": 7038,
      "Notation": 7039,
      "Ġcentimeters": 7040,
      "{?}{=}": 7041,
      "accessed": 7042,
      "umulative": 7043,
      ")*!/": 7044,
      "dot": 7045,
      "Ġaccur": 7046,
      "Ġpalindrom": 7047,
      "atch": 7048,
      "ached": 7049,
      "Ġson": 7050,
      "Ġgir": 7051,
      "thetic": 7052,
      "toa": 7053,
      "ĠDiagonal": 7054,
      "ĠCompon": 7055,
      "ĠCompatible": 7056,
      "Ġimpossible": 7057,
      "Ġcalculations": 7058,
      "Ġraised": 7059,
      "ĠTrigonometric": 7060,
      "Ġmonths": 7061,
      "Ġdrive": 7062,
      "Ġfluid": 7063,
      "Ġ$+$": 7064,
      "checkmark": 7065,
      "ert": 7066,
      "Ġwide": 7067,
      "Ġdel": 7068,
      "rize": 7069,
      "Ġ1200": 7070,
      "ĠRank": 7071,
      "oux": 7072,
      "Ġspend": 7073,
      "ĠUnits": 7074,
      "ivalent": 7075,
      "Ġrecord": 7076,
      "Angle": 7077,
      "ĠInfinity": 7078,
      "Ġtextbook": 7079,
      "Ġtests": 7080,
      "arboux": 7081,
      "pounds": 7082,
      "mar": 7083,
      "nine": 7084,
      "}âĮª": 7085,
      "ĠTree": 7086,
      "ives": 7087,
      "Ġ1024": 7088,
      "itch": 7089,
      "celes": 7090,
      "osceles": 7091,
      "section": 7092,
      "ĠJo": 7093,
      "ural": 7094,
      "0000": 7095,
      "}})}^{": 7096,
      "Ġspanning": 7097,
      "Ġdetermining": 7098,
      "ĠSymmetry": 7099,
      "Ġstarted": 7100,
      "Ġencounter": 7101,
      "Ġcongruent": 7102,
      "levant": 7103,
      "Vari": 7104,
      "orrect": 7105,
      "Ġbill": 7106,
      "Ġlife": 7107,
      "Ġ1560": 7108,
      "hole": 7109,
      "Ġyields": 7110,
      "Ġcommand": 7111,
      "Ġmatroid": 7112,
      "Ġabbrevi": 7113,
      "enerate": 7114,
      "Ġimaginary": 7115,
      "ĠSimilarly": 7116,
      "supset": 7117,
      "ĠPreserved": 7118,
      "ĠTransformations": 7119,
      "ĠCalculus": 7120,
      "models": 7121,
      "ged": 7122,
      "ricted": 7123,
      "Ġmechan": 7124,
      "Ġrep": 7125,
      "Ġhist": 7126,
      "Ġ1060": 7127,
      "Ġ1072": 7128,
      "Ġrespon": 7129,
      "Ġlink": 7130,
      "ersion": 7131,
      "Ġ${âĪ¬}_{": 7132,
      "Ġdev": 7133,
      "Ġregions": 7134,
      "Ġcylindrical": 7135,
      "lectric": 7136,
      "Ġtwenty": 7137,
      "ĠLaws": 7138,
      "Ġnorth": 7139,
      "ĠDigits": 7140,
      "ĠStatistics": 7141,
      "Ġradicand": 7142,
      "ners": 7143,
      "Ġtrac": 7144,
      "isp": 7145,
      "Ġsplit": 7146,
      "Ġgues": 7147,
      "Ġ1036": 7148,
      "}_{{": 7149,
      "}})$": 7150,
      "Ġdiscontinu": 7151,
      "Ġdeal": 7152,
      "ĠPartition": 7153,
      "Ġacting": 7154,
      ")-(": 7155,
      "Ġdescribes": 7156,
      "Ġimprove": 7157,
      "king": 7158,
      "nam": 7159,
      "po": 7160,
      "itted": 7161,
      "ĠMore": 7162,
      "ĠHom": 7163,
      "ĠHorizontal": 7164,
      "otome": 7165,
      "table": 7166,
      "ĠAny": 7167,
      "Ġsubstituting": 7168,
      "ĠâĵĶ": 7169,
      "Ġobvious": 7170,
      "Ġcorner": 7171,
      "Ġpopulations": 7172,
      "ltdef": 7173,
      "lliptic": 7174,
      "^+$": 7175,
      "Ġassign": 7176,
      "Appl": 7177,
      "ĠEvaluating": 7178,
      "Ġengine": 7179,
      "ltdefn": 7180,
      ":$": 7181,
      "Tr": 7182,
      "from": 7183,
      "two": 7184,
      "Ġtan": 7185,
      "Ġbirth": 7186,
      "Ġfifth": 7187,
      "ante": 7188,
      "ĠNeg": 7189,
      "Ġshall": 7190,
      "ĠBorel": 7191,
      "versal": 7192,
      "ĠSubstitute": 7193,
      "ĠChar": 7194,
      "Ġobserved": 7195,
      "Ġparameterization": 7196,
      "ĠResid": 7197,
      "Ġexpectation": 7198,
      "Normed": 7199,
      "owski": 7200,
      "Techn": 7201,
      "Ġtall": 7202,
      "Ġpast": 7203,
      "Ġreverse": 7204,
      "Ġ1044": 7205,
      "ĠEpimorphism": 7206,
      "Ġstore": 7207,
      "Ġalthough": 7208,
      "Ġ1008": 7209,
      "Ġheads": 7210,
      "}^{âĢ²}{": 7211,
      "Ġcomputation": 7212,
      "Ġoutcome": 7213,
      "Ġgrade": 7214,
      "Ġscience": 7215,
      "Ġconfusion": 7216,
      "Sequence": 7217,
      "ĠBernoulli": 7218,
      "Finally": 7219,
      "sis": 7220,
      "len": 7221,
      "Ġpict": 7222,
      "Ġder": 7223,
      "ĠAvailable": 7224,
      "oss": 7225,
      "Ġotherwise": 7226,
      "Construct": 7227,
      "Ġscatter": 7228,
      "exp": 7229,
      "ĠParticular": 7230,
      "Ġcomplementary": 7231,
      "ĠMotion": 7232,
      "Ġcomparison": 7233,
      "Ġorientation": 7234,
      "yramid": 7235,
      "%.": 7236,
      "Min": 7237,
      "four": 7238,
      "uff": 7239,
      "org": 7240,
      "Ġbr": 7241,
      "Ġsun": 7242,
      "ĠInitial": 7243,
      "ivot": 7244,
      "ĠMoment": 7245,
      "Ġ1500": 7246,
      "Ġboat": 7247,
      "184": 7248,
      "}})": 7249,
      "ĠOrig": 7250,
      "Ġinterpre": 7251,
      "ĠAltern": 7252,
      "Ġinductive": 7253,
      "}^{âĢ²}+": 7254,
      "Ġdesired": 7255,
      "Ġends": 7256,
      "Ġopens": 7257,
      "tensions": 7258,
      "ledge": 7259,
      "Ġ$[âĪĴ": 7260,
      "Ġtwin": 7261,
      "Ġalternating": 7262,
      "Ġdiscussed": 7263,
      "Ġisolated": 7264,
      "Ġsalary": 7265,
      "Ġinstructor": 7266,
      "Ġpennies": 7267,
      "$;": 7268,
      "Riemann": 7269,
      "bullet": 7270,
      "ĠSubtraction": 7271,
      "ĠFigure": 7272,
      "Ġlocation": 7273,
      "Ġaccep": 7274,
      "ĠGraphing": 7275,
      "Ġsimilarly": 7276,
      "ĠUniversal": 7277,
      "Ġinterpretation": 7278,
      "ĠContradiction": 7279,
      "ĠPolygon": 7280,
      "vitational": 7281,
      "ĠPoisson": 7282,
      "AG": 7283,
      "Ph": 7284,
      "Ver": 7285,
      "basis": 7286,
      "eled": 7287,
      "ii": 7288,
      "now": 7289,
      "Ġcity": 7290,
      "ĠAxis": 7291,
      "ĠCD": 7292,
      "ĠMass": 7293,
      "122": 7294,
      "Ġ1350": 7295,
      "ĠLess": 7296,
      "172": 7297,
      "Ġself": 7298,
      "}(-": 7299,
      "}){": 7300,
      "Ġtrip": 7301,
      "Ġtrave": 7302,
      "Ġarrive": 7303,
      "ĠCentral": 7304,
      "Hint": 7305,
      "IA": 7306,
      "bet": 7307,
      "cher": 7308,
      "ĠĊĊĠ": 7309,
      "ulate": 7310,
      "rily": 7311,
      "ĠDarboux": 7312,
      "ĠMay": 7313,
      "icon": 7314,
      "Ġpoin": 7315,
      "}},$": 7316,
      "Ġvia": 7317,
      "cdotx": 7318,
      "Ġspring": 7319,
      "Inverse": 7320,
      "Ġcurvature": 7321,
      "ommensurable": 7322,
      "Ġadults": 7323,
      "Ġnames": 7324,
      "ĠMagic": 7325,
      "Ġitems": 7326,
      "Ġeigenvectors": 7327,
      "Ġantiderivative": 7328,
      "Ġpressure": 7329,
      "AF": 7330,
      "Pre": 7331,
      "]_*": 7332,
      "bon": 7333,
      "box": 7334,
      "pq": 7335,
      "sf": 7336,
      "Ġpor": 7337,
      "Ġpron": 7338,
      "Ġhyp": 7339,
      "Ġ1368": 7340,
      "Ġnothing": 7341,
      "Ġoutputs": 7342,
      "Assume": 7343,
      "ĠCoordinate": 7344,
      "ĠPlan": 7345,
      "Ġweights": 7346,
      "Ġconnective": 7347,
      "rizable": 7348,
      "Ġmodeled": 7349,
      "www": 7350,
      "Ġfamiliar": 7351,
      "{âĢĭ": 7352,
      "Limit": 7353,
      "cket": 7354,
      "ĠJul": 7355,
      "ĠConclusion": 7356,
      "Ġnoted": 7357,
      "Ġphone": 7358,
      "Ġpaths": 7359,
      "Ġvisual": 7360,
      "Matrix": 7361,
      "ĠItself": 7362,
      "Hausdorff": 7363,
      "Second": 7364,
      "hom": 7365,
      "ĠTechn": 7366,
      "Ġfail": 7367,
      "ĠSample": 7368,
      "Ġ1049": 7369,
      "Ġdoing": 7370,
      "tedge": 7371,
      "Ġinvested": 7372,
      "ĠWFFs": 7373,
      "scribed": 7374,
      "BE": 7375,
      "Name": 7376,
      "Per": 7377,
      "Space": 7378,
      "Ġtrees": 7379,
      "titions": 7380,
      "Ġcamp": 7381,
      "Ġperm": 7382,
      "Ġ1440": 7383,
      "146": 7384,
      "iring": 7385,
      "test": 7386,
      "igens": 7387,
      "ĠGerm": 7388,
      "}=(": 7389,
      "ĠConc": 7390,
      "Ġupward": 7391,
      "Ġfewer": 7392,
      "scri": 7393,
      "Ġconcave": 7394,
      "Ġplayers": 7395,
      "Ġextreme": 7396,
      "cending": 7397,
      "ĠHomeomorphism": 7398,
      "OP": 7399,
      "Ġtang": 7400,
      "inology": 7401,
      "Ġpati": 7402,
      "Ġ(âĪĴ": 7403,
      "arante": 7404,
      "ĠCre": 7405,
      "Ġmanner": 7406,
      "Ġ2010": 7407,
      "151": 7408,
      "164": 7409,
      "illed": 7410,
      "Ġlead": 7411,
      "Ġshillings": 7412,
      "ircle": 7413,
      "Ġ1001": 7414,
      "}^{âĢ²}$": 7415,
      "ĠConverges": 7416,
      "ibility": 7417,
      "Ġseparated": 7418,
      "Ġfrequently": 7419,
      "ĠUnital": 7420,
      "ĠGreatest": 7421,
      "Chapter": 7422,
      "VV": 7423,
      "volution": 7424,
      "Ċĉ": 7425,
      "Ġages": 7426,
      "Ġ1064": 7427,
      "uments": 7428,
      "ĠCateg": 7429,
      "Ġ1188": 7430,
      "Ġconduct": 7431,
      "Ġquite": 7432,
      "Ġsetting": 7433,
      "Ġfollowed": 7434,
      "Ġspectrum": 7435,
      "ĠFunctional": 7436,
      "Ġroom": 7437,
      "Ġpref": 7438,
      "Ġgeneralized": 7439,
      "ĠCoordinates": 7440,
      "ishing": 7441,
      "^*_": 7442,
      "Ġsentences": 7443,
      "Ġmonthly": 7444,
      "Ġembedding": 7445,
      "Ġloop": 7446,
      "amilton": 7447,
      "Ġcarefully": 7448,
      "Ġwoman": 7449,
      "Ġisolate": 7450,
      "reflexive": 7451,
      "ĠManifold": 7452,
      "rosses": 7453,
      "omy": 7454,
      "Ġhit": 7455,
      "Ġresources": 7456,
      "ĠHence": 7457,
      "Ġconsum": 7458,
      "Ġtrace": 7459,
      "Proper": 7460,
      "Ġfactorial": 7461,
      "Ġsurfaces": 7462,
      "opulation": 7463,
      "Ġincreased": 7464,
      "spaces": 7465,
      "ĠIdempotent": 7466,
      "Ġbegins": 7467,
      "Ġdiscussion": 7468,
      "ĠBelow": 7469,
      "Ġguarante": 7470,
      "*?": 7471,
      "met": 7472,
      "{.}": 7473,
      "||": 7474,
      "Ġpol": 7475,
      "Ġgarden": 7476,
      "Ġef": 7477,
      "ĠCross": 7478,
      "Ġbeh": 7479,
      "Ġ1260": 7480,
      "Ġ1170": 7481,
      "ĠHarmonic": 7482,
      "Ġ1320": 7483,
      "Ġ1360": 7484,
      "148": 7485,
      "Ġforces": 7486,
      "Ġgoal": 7487,
      "Ġ\\,}$": 7488,
      "âĪŀ.$": 7489,
      "Ġsimultaneous": 7490,
      "Ġconsist": 7491,
      "Ġassuming": 7492,
      "Ġparallelepiped": 7493,
      "Ġperiodic": 7494,
      "Ġclearly": 7495,
      "Ġassigned": 7496,
      "Ġsingular": 7497,
      "No": 7498,
      "distribution": 7499,
      "Ġwent": 7500,
      "Ġwall": 7501,
      "Ġwave": 7502,
      "ĠSegment": 7503,
      "Ġgap": 7504,
      "itz": 7505,
      "Ġstoch": 7506,
      "ths": 7507,
      "Ġthought": 7508,
      "Ġvon": 7509,
      "Ġstudied": 7510,
      "ccentric": 7511,
      "atisf": 7512,
      "Ġderives": 7513,
      "Ġconfident": 7514,
      "Ġaccess": 7515,
      "hips": 7516,
      "Ġbinomials": 7517,
      "Ġconcent": 7518,
      "Ġpredict": 7519,
      "tisymmetric": 7520,
      "Ġtrivially": 7521,
      "{Â°}$": 7522,
      "Ġgallon": 7523,
      "Ġsummarize": 7524,
      "ĠOrthogonal": 7525,
      "!$": 7526,
      ",\"": 7527,
      "625": 7528,
      "Round": 7529,
      "Ġpain": 7530,
      "Ġsuf": 7531,
      "Ġ1386": 7532,
      "Ġdie": 7533,
      "174": 7534,
      "seven": 7535,
      "ody": 7536,
      "ĊĊĠĊĊ": 7537,
      "Ġdistances": 7538,
      "Ġedition": 7539,
      "Ġparticularly": 7540,
      "âĮª,$": 7541,
      "Ġexplore": 7542,
      "ĠExponents": 7543,
      "ĠContinued": 7544,
      "ĠCoefficient": 7545,
      "ĠFrequency": 7546,
      "Ġstochastic": 7547,
      "Axiom": 7548,
      "IV": 7549,
      "Total": 7550,
      "dz": 7551,
      "differ": 7552,
      "Ġom": 7553,
      "Ġav": 7554,
      "Ġwish": 7555,
      "Ġmere": 7556,
      "Ġrepl": 7557,
      "Ġ1019": 7558,
      "Ġ1066": 7559,
      "ump": 7560,
      "Ġ1600": 7561,
      "186": 7562,
      "perp": 7563,
      "Ġcars": 7564,
      "Ġthir": 7565,
      "}),$": 7566,
      "Ġlooks": 7567,
      "Ġsuper": 7568,
      "Ġintu": 7569,
      "Ġexplan": 7570,
      "ĠDerivatives": 7571,
      "ĠEveryday": 7572,
      "Ġskills": 7573,
      "Determine": 7574,
      "Bounded": 7575,
      "Ġfaster": 7576,
      "Ġfront": 7577,
      "ĠSides": 7578,
      "Ġrelevant": 7579,
      "Ġ1013": 7580,
      "Ġ1140": 7581,
      "159": 7582,
      ")$$": 7583,
      "Ġcompatible": 7584,
      "Ġabstract": 7585,
      "ĠProducts": 7586,
      "Ġidempotent": 7587,
      "ĠPartial": 7588,
      "ĠGenerating": 7589,
      "Closed": 7590,
      "ridge": 7591,
      "Ġnamed": 7592,
      "Ġannual": 7593,
      "onditional": 7594,
      "\".": 7595,
      "According": 7596,
      "OT": 7597,
      "SA": 7598,
      "xz": 7599,
      "Ġocc": 7600,
      "Ġ(),": 7601,
      "188": 7602,
      "Ġyet": 7603,
      "iling": 7604,
      "248": 7605,
      "mathsf": 7606,
      "Ġhead": 7607,
      "Ġheld": 7608,
      "Ġpolyhedron": 7609,
      "alytic": 7610,
      "Ġcombined": 7611,
      "ĠObject": 7612,
      "ĠOrdinals": 7613,
      "Ġbalanced": 7614,
      "Ġpreserves": 7615,
      "ĠPermutation": 7616,
      "Ġmathematicians": 7617,
      "$âĪĴ": 7618,
      "Rem": 7619,
      "fit": 7620,
      "wide": 7621,
      "ych": 7622,
      "}>": 7623,
      "Ġaut": 7624,
      "Ġprac": 7625,
      "Ġpiz": 7626,
      "Ġens": 7627,
      "Ġechelon": 7628,
      "ĠData": 7629,
      "ationary": 7630,
      "107": 7631,
      "Ġconjecture": 7632,
      "Ġ1920": 7633,
      "183": 7634,
      "Ġyield": 7635,
      "Ġdividend": 7636,
      "texttt": 7637,
      ")(âĪĴ": 7638,
      "Ġinduces": 7639,
      "ĠParabol": 7640,
      "ointed": 7641,
      "ĠPeriod": 7642,
      "Ġelectron": 7643,
      "Ġelimination": 7644,
      "010": 7645,
      "CB": 7646,
      "Ġparity": 7647,
      "ĠSol": 7648,
      "Ġeff": 7649,
      "ĠAutomorphism": 7650,
      "Ġ1120": 7651,
      "outh": 7652,
      "147": 7653,
      "Ġcommunity": 7654,
      "âĪŃ": 7655,
      "Ġshaded": 7656,
      "ĠBetween": 7657,
      "clockwise": 7658,
      "type": 7659,
      "Ġvariances": 7660,
      "formal": 7661,
      "ĠDecision": 7662,
      "Ġjoined": 7663,
      "Ġcustomer": 7664,
      "Ġshifted": 7665,
      "curl": 7666,
      "Ġaccurate": 7667,
      "Ġpicture": 7668,
      "De": 7669,
      "fication": 7670,
      "ops": 7671,
      "tude": 7672,
      "Ġ1027": 7673,
      "Ġinstruction": 7674,
      "Ġorthonormal": 7675,
      "Ġgetting": 7676,
      "ticle": 7677,
      "raf": 7678,
      "agrange": 7679,
      "365": 7680,
      "Ġ${{": 7681,
      "ĠBoth": 7682,
      "ounced": 7683,
      "Ġspe": 7684,
      "373": 7685,
      "ĠSubring": 7686,
      "ĠLetters": 7687,
      "Ġchoices": 7688,
      "Ġrectangles": 7689,
      "{,âĢ¦": 7690,
      "Ġlowest": 7691,
      "aternion": 7692,
      "OI": 7693,
      "run": 7694,
      "erti": 7695,
      "erving": 7696,
      "Ġcrosses": 7697,
      "ĠColumn": 7698,
      "Ġlists": 7699,
      "ĠFamily": 7700,
      "ĠFalse": 7701,
      "Ġ1890": 7702,
      "Ġequip": 7703,
      "Ġarises": 7704,
      "Ġteam": 7705,
      "Probability": 7706,
      "ĠLinearly": 7707,
      "Ġsegments": 7708,
      "Ġcolor": 7709,
      "Ġequilibrium": 7710,
      "{âĢ¦}$": 7711,
      "Ġcontradicts": 7712,
      "Discrete": 7713,
      "Ġbig": 7714,
      "Ġpivot": 7715,
      "ried": 7716,
      "Ġmind": 7717,
      "ĠAcc": 7718,
      "Ġ1015": 7719,
      "Ġ1344": 7720,
      "Ġ1872": 7721,
      "Ġgrouping": 7722,
      "mata": 7723,
      "Ġalone": 7724,
      "337": 7725,
      "ĠYear": 7726,
      "Ġregard": 7727,
      "ĠSummation": 7728,
      "Ġsemi": 7729,
      "Compact": 7730,
      "{Â±": 7731,
      "Ġrunning": 7732,
      "Ġlabeled": 7733,
      "Three": 7734,
      "Ġpreceding": 7735,
      ")\\\\": 7736,
      "Ad": 7737,
      "FG": 7738,
      "ishes": 7739,
      "Ġsixt": 7740,
      "Ġ-----": 7741,
      "ĠCotangent": 7742,
      "Ġ1144": 7743,
      "Ġ1134": 7744,
      "ĠRatio": 7745,
      "Ġ1003": 7746,
      "}}{(âĪĴ": 7747,
      "Ġinflu": 7748,
      "Another": 7749,
      "ĠArbitrary": 7750,
      "itivity": 7751,
      "ĠMaximum": 7752,
      "Ġcounterclockwise": 7753,
      "Ġscientific": 7754,
      "ĠCancellable": 7755,
      ")^{": 7756,
      "Ring": 7757,
      "Unit": 7758,
      "itives": 7759,
      "slope": 7760,
      "heit": 7761,
      "Ġ=-": 7762,
      "Ġmix": 7763,
      "Ġ1030": 7764,
      "ĠHamilton": 7765,
      "109": 7766,
      "Ġformat": 7767,
      "Ġordinary": 7768,
      "ĠDirected": 7769,
      "Ġambig": 7770,
      "704": 7771,
      "ĠDocument": 7772,
      "ĠKernel": 7773,
      "ĠVectors": 7774,
      "ĠSpectrum": 7775,
      "Ġdrawing": 7776,
      "Ġconstrain": 7777,
      "Ġdecrease": 7778,
      "Ġgravitational": 7779,
      "Ġbusiness": 7780,
      "Technical": 7781,
      "*|*": 7782,
      "Dec": 7783,
      "FC": 7784,
      "OV": 7785,
      "between": 7786,
      "{|": 7787,
      "Ġwon": 7788,
      "action": 7789,
      "icable": 7790,
      "Ġ1728": 7791,
      "ĠPat": 7792,
      "Ġ3960": 7793,
      "rarily": 7794,
      "Ġvalued": 7795,
      "664": 7796,
      "Ġperhaps": 7797,
      "lopes": 7798,
      "bitrarily": 7799,
      "minant": 7800,
      "ĠMeet": 7801,
      "ĠError": 7802,
      "ĠPlot": 7803,
      "unctors": 7804,
      "ĠFactorial": 7805,
      "ĠGenerator": 7806,
      "ĠThird": 7807,
      "ĠPrimes": 7808,
      "Ġchess": 7809,
      "Ġnegatives": 7810,
      "ĠChebyshev": 7811,
      "ographic": 7812,
      "Ġsuffic": 7813,
      "Em": 7814,
      "Or": 7815,
      "world": 7816,
      "tite": 7817,
      "ream": 7818,
      "ĠTw": 7819,
      "arc": 7820,
      "Ġnodes": 7821,
      "Ġ1090": 7822,
      "Ġ1042": 7823,
      "Ġinconsistent": 7824,
      "ĠHer": 7825,
      "ĠFree": 7826,
      "âĢľ": 7827,
      "999": 7828,
      "herent": 7829,
      "Ġ1004": 7830,
      "Ġchanged": 7831,
      "ĠComput": 7832,
      "Ġindeterm": 7833,
      "Ġcontinuously": 7834,
      "Ġrecur": 7835,
      "renheit": 7836,
      "ĠTriple": 7837,
      "Ġconnectives": 7838,
      "Ġinvestigate": 7839,
      "Ġwait": 7840,
      "ahrenheit": 7841,
      "ecially": 7842,
      "Ġdropped": 7843,
      "{Â±}": 7844,
      "Choose": 7845,
      "Des": 7846,
      "pital": 7847,
      "Âµ": 7848,
      "Ġtheore": 7849,
      "Ġgl": 7850,
      "Ġ1048": 7851,
      "Ġinverses": 7852,
      "ĠEs": 7853,
      "Ġ1512": 7854,
      "ĠLeg": 7855,
      "ille": 7856,
      "okes": 7857,
      "Ġalgebraically": 7858,
      "Ġcycles": 7859,
      "adder": 7860,
      "Ġassumptions": 7861,
      "Ġincommensurable": 7862,
      "Ġdirections": 7863,
      "clusive": 7864,
      "Ġproportional": 7865,
      "ĠTrivial": 7866,
      "ĠCosecant": 7867,
      "Ġobservation": 7868,
      "}^{*})": 7869,
      "ĠRelative": 7870,
      "Ġearthqu": 7871,
      "Be": 7872,
      "Negative": 7873,
      "Reg": 7874,
      "each": 7875,
      "Ġmistake": 7876,
      "antic": 7877,
      "Ġ1068": 7878,
      "Ġ1224": 7879,
      "Ġ1110": 7880,
      "Ġworked": 7881,
      "Ġ1568": 7882,
      "Ġexternal": 7883,
      "222": 7884,
      "ĠGive": 7885,
      "992": 7886,
      "Ġunbounded": 7887,
      "Ġrecent": 7888,
      "Ġwheel": 7889,
      "Ġdecreases": 7890,
      "ĠExpression": 7891,
      "Ġriver": 7892,
      "Ġbelieve": 7893,
      "nabla": 7894,
      "Ġaliquot": 7895,
      "CE": 7896,
      "Comm": 7897,
      "Ma": 7898,
      "};$": 7899,
      "Ġwrong": 7900,
      "Ġreading": 7901,
      "Ġever": 7902,
      "Ġ1245": 7903,
      "Ġ1148": 7904,
      "Ġ1175": 7905,
      "Ġ1152": 7906,
      "hood": 7907,
      "145": 7908,
      "Ġ2640": 7909,
      "ended": 7910,
      "ĠNet": 7911,
      "352": 7912,
      "ĠOver": 7913,
      "Ġ1006": 7914,
      "Ġintegrate": 7915,
      "Ġrecomm": 7916,
      "Ġeduc": 7917,
      "ĠApplying": 7918,
      "Ġentirely": 7919,
      "ĠSeparation": 7920,
      "Ġconduc": 7921,
      "Ġmerely": 7922,
      "+(-": 7923,
      "QR": 7924,
      "pecially": 7925,
      "step": 7926,
      "inv": 7927,
      "enote": 7928,
      "ĠTheir": 7929,
      "ĠEllipse": 7930,
      "Ġwhenever": 7931,
      "167": 7932,
      "Ġ*,": 7933,
      "ĠNor": 7934,
      "Ġquas": 7935,
      "Ġorders": 7936,
      "cluded": 7937,
      "Ġvan": 7938,
      "848": 7939,
      "Ġneut": 7940,
      "partite": 7941,
      "Ġmonomorphism": 7942,
      "complement": 7943,
      "Ġseparation": 7944,
      "}^{-}}{": 7945,
      "Ġhomeomorphic": 7946,
      "Ġslight": 7947,
      "Ġreplaced": 7948,
      "Ġimplication": 7949,
      "Ġinvolves": 7950,
      "Ġpentagon": 7951,
      ");$": 7952,
      "Data": 7953,
      "cer": 7954,
      "five": 7955,
      "total": 7956,
      "Ġve": 7957,
      "onic": 7958,
      "orial": 7959,
      "Ġ$=": 7960,
      "Ġsizes": 7961,
      "Ġgot": 7962,
      "ĠAm": 7963,
      "Ġ1011": 7964,
      "ĠCover": 7965,
      "Ġ1125": 7966,
      "ĠBis": 7967,
      "Ġvi": 7968,
      "}(âĪĴ": 7969,
      "Ġnormally": 7970,
      "hedra": 7971,
      "scill": 7972,
      "Sometimes": 7973,
      "Ġrefinement": 7974,
      "Ġpayoff": 7975,
      "Ġplotting": 7976,
      "Ġearns": 7977,
      "ĠParallelogram": 7978,
      "ĠPreimage": 7979,
      "Ġpiecewise": 7980,
      "Ġaffine": 7981,
      "Ġconcerned": 7982,
      "dV": 7983,
      "like": 7984,
      "Ġtit": 7985,
      "Ġ2100": 7986,
      "attices": 7987,
      "Ġ$âĮ©": 7988,
      "Ġmother": 7989,
      "Ġtowards": 7990,
      "Ġ1017": 7991,
      "Ġ1092": 7992,
      "Ġ1230": 7993,
      "otope": 7994,
      "Ġ1800": 7995,
      "166": 7996,
      "}^{(": 7997,
      "ĠPred": 7998,
      "Ġapparent": 7999,
      "Ġrates": 8000,
      "226": 8001,
      "257": 8002,
      "ights": 8003,
      "768": 8004,
      "Ġgenerate": 8005,
      "Ġcurl": 8006,
      "Ġknowledge": 8007,
      "ĠConditional": 8008,
      "Ġespecially": 8009,
      "Ġconfir": 8010,
      "Ġmodulus": 8011,
      "auder": 8012,
      "ĠIntervals": 8013,
      "Ġallowed": 8014,
      "Ġliters": 8015,
      "Ġsituations": 8016,
      "ernal": 8017,
      "Ġprofess": 8018,
      "Ġgirls": 8019,
      "La": 8020,
      "ST": 8021,
      "Sch": 8022,
      "{\\,": 8023,
      "rous": 8024,
      "Ġbank": 8025,
      "Ġ(-": 8026,
      "anu": 8027,
      "Ġ1070": 8028,
      "Ġ1088": 8029,
      "Ġ1062": 8030,
      "Ġ1288": 8031,
      "ĠRange": 8032,
      "state": 8033,
      "141": 8034,
      "191": 8035,
      "geq": 8036,
      "Ġouter": 8037,
      "}}\\\\": 8038,
      "Ġ1002": 8039,
      "cient": 8040,
      "Fort": 8041,
      "forward": 8042,
      "}^{âĢ²}": 8043,
      "Ġsigned": 8044,
      "Ġ?*!/": 8045,
      "Ġdepending": 8046,
      "Ġtools": 8047,
      "Ġsummariz": 8048,
      "Ġcloser": 8049,
      "Ġarranged": 8050,
      "050": 8051,
      "bing": 8052,
      "csp": 8053,
      "ltin": 8054,
      "roll": 8055,
      "ĠTe": 8056,
      "Ġoffer": 8057,
      "alif": 8058,
      "Ġ1290": 8059,
      "ametric": 8060,
      "Ġ2014": 8061,
      "Ġ2040": 8062,
      "Ġ2007": 8063,
      "ĠLook": 8064,
      "Ġ1944": 8065,
      "iest": 8066,
      "otivation": 8067,
      "}={(": 8068,
      "},âĪĴ": 8069,
      "Ġ2160": 8070,
      "Ġrestricted": 8071,
      "Ġacts": 8072,
      "Ġcharges": 8073,
      "Ġrounded": 8074,
      "Ġsurveyed": 8075,
      "Ġsuccessor": 8076,
      "Ġchem": 8077,
      "Ġitem": 8078,
      "Ġwindow": 8079,
      "Ċĉĉĉĉĉĉĉ": 8080,
      "Ġenclosed": 8081,
      "rafilter": 8082,
      "OIL": 8083,
      "ltinverse": 8084,
      "]{âĪĴ": 8085,
      "zeta": 8086,
      "omen": 8087,
      "Ġda": 8088,
      "Ġslopes": 8089,
      "Ġreader": 8090,
      "ctor": 8091,
      "Ġ1172": 8092,
      "Ġ1190": 8093,
      "Ġ1176": 8094,
      "ĠEv": 8095,
      "ĠEuclid": 8096,
      "ĠFahrenheit": 8097,
      "Ġ1620": 8098,
      "Ġstock": 8099,
      "194": 8100,
      "ilos": 8101,
      "ĠExpect": 8102,
      "une": 8103,
      "ĠMonotone": 8104,
      "Ġ1005": 8105,
      "llips": 8106,
      "}),": 8107,
      "Ġrelational": 8108,
      ")}{(": 8109,
      "Ġinvari": 8110,
      "Ġinvolve": 8111,
      "Ġ`.": 8112,
      "ĠGreater": 8113,
      "Ġevaluated": 8114,
      "Ġcompared": 8115,
      "Ġimmediate": 8116,
      "Geometry": 8117,
      "Ġremoved": 8118,
      "Phys": 8119,
      ",}$": 8120,
      "375": 8121,
      "Deg": 8122,
      "Many": 8123,
      "}}$.": 8124,
      "Ġaffect": 8125,
      "Ġ=(": 8126,
      "ĠInequalities": 8127,
      "Ġ1028": 8128,
      "Ġinch": 8129,
      "Ġ1184": 8130,
      "racy": 8131,
      "ĠFOIL": 8132,
      "Ġ1900": 8133,
      "155": 8134,
      "uccess": 8135,
      "allel": 8136,
      "ellow": 8137,
      "change": 8138,
      "Proposition": 8139,
      "Ġdetermines": 8140,
      "ĠChange": 8141,
      "Ġdesigned": 8142,
      "secant": 8143,
      "interval": 8144,
      "Ġoptions": 8145,
      "ĠSpherical": 8146,
      "node": 8147,
      "ĠMinimal": 8148,
      "Ġintroduce": 8149,
      "ĠRadius": 8150,
      "Ġtrapezoid": 8151,
      "Cartesian": 8152,
      "ertia": 8153,
      ")-{": 8154,
      "Side": 8155,
      "Sem": 8156,
      "lap": 8157,
      "yn": 8158,
      "Ġcause": 8159,
      "Ġbacter": 8160,
      "ĠTes": 8161,
      "Ġgrap": 8162,
      "ĠWhe": 8163,
      "Ġ1032": 8164,
      "Ġ1078": 8165,
      "Ġ1058": 8166,
      "Ġlost": 8167,
      "Ġladder": 8168,
      "Ġcommission": 8169,
      "Ġsumm": 8170,
      "terns": 8171,
      "Ġsev": 8172,
      "Ġsound": 8173,
      "ymbol": 8174,
      "})}^{âĪĴ": 8175,
      "Ġsatisfiable": 8176,
      "Ġuniquely": 8177,
      "Ġpatterns": 8178,
      "ĠSyllogism": 8179,
      "Ġevaluation": 8180,
      "Locally": 8181,
      "Ġpossibly": 8182,
      "Ġseems": 8183,
      "Convert": 8184,
      "downarrow": 8185,
      "Ġdescription": 8186,
      "Ġderive": 8187,
      "Ġpointed": 8188,
      "Denote": 8189,
      "Our": 8190,
      "Ġdro": 8191,
      "enari": 8192,
      "Ġnuts": 8193,
      "Ġgrid": 8194,
      "Ġhard": 8195,
      "usp": 8196,
      "Ġ1075": 8197,
      "Ġ1236": 8198,
      "Ġlim": 8199,
      "Ġ1380": 8200,
      "Ġ1348": 8201,
      "Ġ1520": 8202,
      "Ġ1848": 8203,
      "Ġcontrol": 8204,
      "Ġ1960": 8205,
      "Ġ2240": 8206,
      "Ġ2520": 8207,
      "Ġleaves": 8208,
      "_{_": 8209,
      "Ġ\\#": 8210,
      "952": 8211,
      "Ġtransm": 8212,
      "Ġtranscendental": 8213,
      "ĠStar": 8214,
      "lood": 8215,
      "Ġadjoint": 8216,
      "Ġcomputable": 8217,
      "Ġfalls": 8218,
      "Ġtreatment": 8219,
      "Ġalphabet": 8220,
      "BA": 8221,
      "Draw": 8222,
      "loc": 8223,
      "ÏĢ": 8224,
      "Ġolder": 8225,
      "Ġtetra": 8226,
      "atus": 8227,
      "Ġfast": 8228,
      "Ġgave": 8229,
      "Ġ1014": 8230,
      "Ġ1055": 8231,
      "Ġ1256": 8232,
      "Ġ1232": 8233,
      "**.": 8234,
      "itary": 8235,
      "Ġ1335": 8236,
      "Ġ1460": 8237,
      "Ġ2012": 8238,
      "Ġ2016": 8239,
      "}{âĪŃ": 8240,
      "ĠPr": 8241,
      "Ġ3360": 8242,
      "eck": 8243,
      "Ġsequentially": 8244,
      "Ġtranslation": 8245,
      "Ġstrings": 8246,
      "Ġdescribing": 8247,
      "Ġdriving": 8248,
      "}^{âĢ³}+": 8249,
      "Ġelimin": 8250,
      "Ġcapac": 8251,
      "ĠCoefficients": 8252,
      "Ġinvolved": 8253,
      "ĠOpposite": 8254,
      "AN": 8255,
      "Bo": 8256,
      "Sage": 8257,
      "base": 8258,
      "liers": 8259,
      "my": 8260,
      "Ġdomino": 8261,
      "Ġoct": 8262,
      "ulum": 8263,
      "alth": 8264,
      "Ġlemma": 8265,
      "Ġ1029": 8266,
      "ĠMany": 8267,
      "otor": 8268,
      "Ġ1632": 8269,
      "Ġ1980": 8270,
      "137": 8271,
      "Ġcommonly": 8272,
      "rapositive": 8273,
      "383": 8274,
      "Ġdisconnected": 8275,
      "Ġdisplacement": 8276,
      "key": 8277,
      "Ġscenari": 8278,
      "ffine": 8279,
      "ressed": 8280,
      "Ġsheet": 8281,
      "Ġperfectly": 8282,
      "Ġpays": 8283,
      "Ġcontinuity": 8284,
      "Ġtesting": 8285,
      "ĠBoundary": 8286,
      "Ġdeduction": 8287,
      "ĠSchauder": 8288,
      "Ġpalindromic": 8289,
      "Ġinterpreted": 8290,
      "az": 8291,
      "{+": 8292,
      "Ġcry": 8293,
      "Ġsaf": 8294,
      "Ġtower": 8295,
      "Ġgram": 8296,
      "ĠCG": 8297,
      "ifolds": 8298,
      "ĠMac": 8299,
      "ĠMar": 8300,
      "Ġ1472": 8301,
      "Ġ1458": 8302,
      "Ġ1716": 8303,
      "Ġ1780": 8304,
      "Ġsubtracted": 8305,
      "173": 8306,
      "Ġ2700": 8307,
      "Ġasser": 8308,
      "ĠAnti": 8309,
      "ermel": 8310,
      "ĠGame": 8311,
      "ĠConjugate": 8312,
      "Ġ1107": 8313,
      "Ġsoft": 8314,
      "Ġdepos": 8315,
      "Ġshowed": 8316,
      "Ġfeel": 8317,
      "Ġendpoint": 8318,
      "ufact": 8319,
      "Ġreflect": 8320,
      "ĠDisjoint": 8321,
      "ĠLimits": 8322,
      "Lemmata": 8323,
      "Ġplanar": 8324,
      "ĠDecomposition": 8325,
      "Ġpreferred": 8326,
      "EBM": 8327,
      "Rightarrow": 8328,
      "integrable": 8329,
      "Mon": 8330,
      "QQ": 8331,
      "Â±": 8332,
      "ering": 8333,
      "Ġcot": 8334,
      "ĠSun": 8335,
      "Ġnice": 8336,
      "Ġnaturally": 8337,
      "Ġeast": 8338,
      "ĠAgain": 8339,
      "Ġ1035": 8340,
      "Ġ1045": 8341,
      "Ġ1039": 8342,
      "Ġ1280": 8343,
      "Ġ1128": 8344,
      "under": 8345,
      "Ġ1370": 8346,
      "Ġ1590": 8347,
      "Ġ1644": 8348,
      "Ġ1650": 8349,
      "Ġ1820": 8350,
      "Ġ1760": 8351,
      "ĠLar": 8352,
      "178": 8353,
      "Ġ3072": 8354,
      "ĠPerc": 8355,
      "Ġ2340": 8356,
      "ĠPropor": 8357,
      "776": 8358,
      "Ġmember": 8359,
      "Ġ1206": 8360,
      "circg": 8361,
      "Ġchance": 8362,
      "formed": 8363,
      "atitude": 8364,
      "ĠKur": 8365,
      "Ġdiscount": 8366,
      "Ġcalls": 8367,
      "modules": 8368,
      "Ġrepeat": 8369,
      "ĠMinim": 8370,
      "Ġpurpose": 8371,
      "Ġsuggest": 8372,
      "Ġmention": 8373,
      "Ġelevation": 8374,
      "Ġencountered": 8375,
      "ĠOrigin": 8376,
      "igenspace": 8377,
      ":}": 8378,
      "AT": 8379,
      "Again": 8380,
      "],$": 8381,
      "dash": 8382,
      "even": 8383,
      "ux": 8384,
      "uns": 8385,
      "var": 8386,
      "Ġcame": 8387,
      "Ġisometry": 8388,
      "Ġecon": 8389,
      "Ġ1076": 8390,
      "Ġ1065": 8391,
      "umulation": 8392,
      "Ġinstant": 8393,
      "Ġ1242": 8394,
      "Ġ1296": 8395,
      "ainder": 8396,
      "ĠDed": 8397,
      "quaring": 8398,
      "Ġ1550": 8399,
      "Ġ{|": 8400,
      "157": 8401,
      "Ġ3000": 8402,
      "tine": 8403,
      "368": 8404,
      "iewed": 8405,
      "Ġformulation": 8406,
      "Ġsubstance": 8407,
      "Ġunless": 8408,
      "Â°,": 8409,
      "Ġaccept": 8410,
      "ĠWhile": 8411,
      "ĠVariation": 8412,
      "ĠSimilar": 8413,
      "Ġcolors": 8414,
      "Ġdependence": 8415,
      "Algebraic": 8416,
      "ĠDivisors": 8417,
      "Ġbalance": 8418,
      "Left": 8419,
      "Ġresearch": 8420,
      "Ġcodeword": 8421,
      "Ġportion": 8422,
      "'$,": 8423,
      "Sm": 8424,
      "Ġtor": 8425,
      "real": 8426,
      "Ġgr": 8427,
      "Ġ1248": 8428,
      "Ġ1180": 8429,
      "que": 8430,
      "Ġ1416": 8431,
      "Ġ1428": 8432,
      "Ġ1448": 8433,
      "Ġ3060": 8434,
      "245": 8435,
      "utation": 8436,
      "ĠProcess": 8437,
      "ĠBasic": 8438,
      "Ġforming": 8439,
      "Ġ1089": 8440,
      "ĠChr": 8441,
      "ĠParacompact": 8442,
      "Ġincorrect": 8443,
      "ĠArens": 8444,
      "Ġtopics": 8445,
      "Ġsuccessive": 8446,
      "Ġtrying": 8447,
      "Ġgradient": 8448,
      "ĠPairs": 8449,
      "ĠDifferentiable": 8450,
      "Area": 8451,
      "ĠNegation": 8452,
      "Ġsuffices": 8453,
      "Look": 8454,
      "Sh": 8455,
      "lez": 8456,
      "Ġ$<": 8457,
      "antics": 8458,
      "Ġ---": 8459,
      "ĠAB": 8460,
      "Ġ1012": 8461,
      "Ġ1074": 8462,
      "Ġinscribed": 8463,
      "Ġ1122": 8464,
      "Ġ1185": 8465,
      "ĠDEF": 8466,
      "ĠMake": 8467,
      "Ġmanufact": 8468,
      "Ġ1300": 8469,
      "amina": 8470,
      "Ġ1470": 8471,
      "ster": 8472,
      "158": 8473,
      "Ġcoff": 8474,
      "Ġstage": 8475,
      "stron": 8476,
      "âĢİ": 8477,
      "ĠAnalytic": 8478,
      "Ġunc": 8479,
      "Ġsoon": 8480,
      "izable": 8481,
      "ĠSubstitution": 8482,
      "ĠUniqueness": 8483,
      "ipher": 8484,
      "Ġmeasurements": 8485,
      "Ġdistribute": 8486,
      "Ġlogically": 8487,
      "Ġadj": 8488,
      "Ġrationals": 8489,
      "Ġgreen": 8490,
      "Ġextra": 8491,
      "Quotient": 8492,
      "Geometric": 8493,
      "Ġconjugates": 8494,
      "otopy": 8495,
      "Empty": 8496,
      "Che": 8497,
      "DC": 8498,
      "More": 8499,
      "Type": 8500,
      "net": 8501,
      "Ġult": 8502,
      "Ġign": 8503,
      "Ġtiles": 8504,
      "Ġnight": 8505,
      "romag": 8506,
      "Ġ1023": 8507,
      "Ġ1250": 8508,
      "Ġ1142": 8509,
      "ĠEigen": 8510,
      "Ġ1444": 8511,
      "Ġconverse": 8512,
      "Ġ1558": 8513,
      "ĠFurthermore": 8514,
      "199": 8515,
      "ĠPon": 8516,
      "Ġ2730": 8517,
      "unch": 8518,
      "308": 8519,
      "Ġapotome": 8520,
      "ĠJoin": 8521,
      "Ġshap": 8522,
      "Ġsubcover": 8523,
      "Ġmeant": 8524,
      "ĠConsequently": 8525,
      "Ġability": 8526,
      "Ġneighborhoods": 8527,
      "Ġtrail": 8528,
      "Ġ$|$": 8529,
      "Ġreasoning": 8530,
      "trass": 8531,
      "ierstrass": 8532,
      "Ġexplicitly": 8533,
      "Ġetc": 8534,
      "widetilde": 8535,
      "OVA": 8536,
      "Ġrecommended": 8537,
      "Ġgraphed": 8538,
      "'(": 8539,
      "OR": 8540,
      "factor": 8541,
      "jectively": 8542,
      "ĠÏķ": 8543,
      "olation": 8544,
      "Ġbread": 8545,
      "Ġwire": 8546,
      "Ġsend": 8547,
      "Ġoffic": 8548,
      "ĠSecant": 8549,
      "Ġgain": 8550,
      "Ġ1033": 8551,
      "Ġ1037": 8552,
      "ĠCol": 8553,
      "Ġ1160": 8554,
      "Ġresistance": 8555,
      "Ġ1688": 8556,
      "2000": 8557,
      "Ġ2376": 8558,
      "apters": 8559,
      "endulum": 8560,
      "ograms": 8561,
      "ĠBinary": 8562,
      "904": 8563,
      "ĠConversion": 8564,
      "chitz": 8565,
      "_____": 8566,
      "ĠKe": 8567,
      "}^{âĢ²}=": 8568,
      "equivalent": 8569,
      "ĠSums": 8570,
      "ĠAbove": 8571,
      "Subgroup": 8572,
      "Ġmagma": 8573,
      "hift": 8574,
      "Ġtypically": 8575,
      "ipschitz": 8576,
      "ĠANOVA": 8577,
      "Ġnegation": 8578,
      "Ġtends": 8579,
      "Ġdevelopment": 8580,
      "Ġhexagon": 8581,
      "Ġcoffee": 8582,
      "Power": 8583,
      "den": 8584,
      "draw": 8585,
      "kg": 8586,
      "ture": 8587,
      "uracy": 8588,
      "ville": 8589,
      "yl": 8590,
      "Ġcumulative": 8591,
      "Ġ$$": 8592,
      "Ġrew": 8593,
      "Ġ1077": 8594,
      "Ġ1071": 8595,
      "ĠCri": 8596,
      "Ġ1557": 8597,
      "traction": 8598,
      "Ġ2024": 8599,
      "ĠLagrange": 8600,
      "149": 8601,
      "Ġ2232": 8602,
      "Ġ3264": 8603,
      "Ġ5712": 8604,
      "Ġcontributions": 8605,
      "253": 8606,
      "632": 8607,
      "circf": 8608,
      "968": 8609,
      "Ġprior": 8610,
      "Ġarch": 8611,
      "Ġyourself": 8612,
      "Ġpreimage": 8613,
      "Ġfema": 8614,
      "Ġlocus": 8615,
      "Ġchoosing": 8616,
      "ĠNext": 8617,
      "Ġoccurring": 8618,
      "rench": 8619,
      "Ġstatistical": 8620,
      "Ġrelatively": 8621,
      "Ġmaps": 8622,
      "ĠTrue": 8623,
      "Ġexcluded": 8624,
      "Ġfiltered": 8625,
      "ĠRepresent": 8626,
      "Ġprism": 8627,
      "Ġdepth": 8628,
      "Ġbrother": 8629,
      "Meas": 8630,
      "Ġparent": 8631,
      "ĠCategorical": 8632,
      "Ġpizza": 8633,
      ")âĢĸ": 8634,
      "<-": 8635,
      "_+": 8636,
      "do": 8637,
      "mx": 8638,
      "rise": 8639,
      "Ġturns": 8640,
      "inc": 8641,
      "reasing": 8642,
      "ĠSI": 8643,
      "ĠWhole": 8644,
      "Ġ1038": 8645,
      "Ġ1098": 8646,
      "Ġ1228": 8647,
      "Ġ1255": 8648,
      "Ġ1116": 8649,
      "ĠMark": 8650,
      "Ġ1540": 8651,
      "Ġ1680": 8652,
      "Ġ1764": 8653,
      "189": 8654,
      "Ġ4032": 8655,
      "608": 8656,
      "Ġsubscri": 8657,
      "}}{{(": 8658,
      "ĠVan": 8659,
      "Ġ1053": 8660,
      "Ġmoved": 8661,
      "ĠUnbounded": 8662,
      "Ġquadrilateral": 8663,
      "Ġraise": 8664,
      "^*_{": 8665,
      "Ġquantif": 8666,
      "ĠValues": 8667,
      "ĠStrategy": 8668,
      "Ġhimself": 8669,
      "Topological": 8670,
      "Ġweighs": 8671,
      "Ġslightly": 8672,
      "Ġbacteria": 8673,
      "AP": 8674,
      "Both": 8675,
      "ED": 8676,
      "GL": 8677,
      "bmod": 8678,
      "dS": 8679,
      "gre": 8680,
      "Ġess": 8681,
      "atable": 8682,
      "Ġdz": 8683,
      "ĠSize": 8684,
      "Ġ1275": 8685,
      "ĠHis": 8686,
      "Ġ1480": 8687,
      "Ġ1584": 8688,
      "Ġ1656": 8689,
      "ĠList": 8690,
      "ĠLicense": 8691,
      "Ġ2808": 8692,
      "Ġ4000": 8693,
      "242": 8694,
      "364": 8695,
      "Ġrace": 8696,
      "Ġparty": 8697,
      "Ġmatches": 8698,
      "ĠCompare": 8699,
      "Ġnotion": 8700,
      "Ġuns": 8701,
      "âĮª.$": 8702,
      "ĠIdeals": 8703,
      "ĠABCD": 8704,
      "within": 8705,
      "Abstract": 8706,
      "Ġprobably": 8707,
      "Ġhouseh": 8708,
      "Ġattribu": 8709,
      "Normal": 8710,
      "Ġfinished": 8711,
      "Ġinstructors": 8712,
      "Ġproceeds": 8713,
      "Ġliterature": 8714,
      "ĠDenomin": 8715,
      "Ġbirthday": 8716,
      "900": 8717,
      "MS": 8718,
      "founded": 8719,
      "yd": 8720,
      "{.": 8721,
      "Ġice": 8722,
      "inds": 8723,
      "olved": 8724,
      "Ġwife": 8725,
      "Problems": 8726,
      "Ġdaught": 8727,
      "essel": 8728,
      "Ġfore": 8729,
      "Ġ1240": 8730,
      "Ġ1278": 8731,
      "iding": 8732,
      "Ġ1439": 8733,
      "Ġ1665": 8734,
      "ĠRot": 8735,
      "ĠLast": 8736,
      "Ġ2250": 8737,
      "Ġ3600": 8738,
      "Ġ3300": 8739,
      "244": 8740,
      "raigh": 8741,
      "Ġ7920": 8742,
      "tating": 8743,
      "Ġray": 8744,
      "thumb": 8745,
      "725": 8746,
      "333": 8747,
      "Ġsubclass": 8748,
      "versed": 8749,
      "Ġ1106": 8750,
      "Ġpositives": 8751,
      "ĠSequentially": 8752,
      "Ġnontrivial": 8753,
      "ĠConditions": 8754,
      "Ġagree": 8755,
      "Ġtwel": 8756,
      "ĠWhite": 8757,
      "ĠModulus": 8758,
      "Ġpreviously": 8759,
      "ĠVerify": 8760,
      "Ġconventional": 8761,
      "Ċĉĉĉĉĉ": 8762,
      "Ġjoining": 8763,
      "Ġfamilies": 8764,
      "uncatable": 8765,
      "Ġsynthetic": 8766,
      "Ġavoid": 8767,
      "Ġtheoretical": 8768,
      "Ġsafe": 8769,
      "raightedge": 8770,
      "`.": 8771,
      "oop": 8772,
      "uits": 8773,
      "}&&": 8774,
      "Ġcotangent": 8775,
      "ĠSign": 8776,
      "arcc": 8777,
      "Ġtoss": 8778,
      "ĠInclusion": 8779,
      "Ġ1084": 8780,
      "Ġ1063": 8781,
      "Ġanalog": 8782,
      "Ġcontrapositive": 8783,
      "Ġcovers": 8784,
      "ĠRem": 8785,
      "197": 8786,
      "179": 8787,
      "ĠPopulation": 8788,
      "Ġ2296": 8789,
      "iral": 8790,
      "ĠOR": 8791,
      "Ġ1208": 8792,
      "vectorlist": 8793,
      "Ġ1085": 8794,
      "Ġ1086": 8795,
      "Ġvariety": 8796,
      "izations": 8797,
      "Ġrecall": 8798,
      "Ġsemic": 8799,
      "Ġstudying": 8800,
      "ĠInfimum": 8801,
      "ĠEulerian": 8802,
      "ĠVertex": 8803,
      "Ġrotated": 8804,
      "Ġmarked": 8805,
      "Ġsells": 8806,
      "icycle": 8807,
      "Riemannian": 8808,
      "ccentricity": 8809,
      "ĠExpectation": 8810,
      "Ins": 8811,
      "Trivial": 8812,
      "Yes": 8813,
      "ael": 8814,
      "cx": 8815,
      "dis": 8816,
      "pts": 8817,
      "vdash": 8818,
      "Ġ#": 8819,
      "Ġtuple": 8820,
      "tir": 8821,
      "arct": 8822,
      "Ġ1034": 8823,
      "Ġ1214": 8824,
      "Ġ1118": 8825,
      "ĠDiver": 8826,
      "ĠEvent": 8827,
      "ames": 8828,
      "Ġ1410": 8829,
      "Ġ1476": 8830,
      "Ġ1536": 8831,
      "Ġ1840": 8832,
      "hose": 8833,
      "Ġ1729": 8834,
      "Ġ1995": 8835,
      "Ġ2400": 8836,
      "Ġ2256": 8837,
      "Ġ2856": 8838,
      "Ġ2736": 8839,
      "Ġ2328": 8840,
      "unit": 8841,
      "Ġ3780": 8842,
      "Ġoutliers": 8843,
      "Ġwanted": 8844,
      "ĠConjunction": 8845,
      "Ġ1109": 8846,
      "Ġindiscrete": 8847,
      "fort": 8848,
      "Read": 8849,
      "Ġtechnology": 8850,
      "ekind": 8851,
      "Ġticket": 8852,
      "ĠLogarithmic": 8853,
      "Absolute": 8854,
      "âĢĥâĢĥ": 8855,
      "Ġgradu": 8856,
      "Ġelse": 8857,
      "ĠCompletion": 8858,
      "Ġdaily": 8859,
      "ilosoph": 8860,
      "arctan": 8861,
      ",}": 8862,
      "Positive": 8863,
      "bilities": 8864,
      "ele": 8865,
      "mm": 8866,
      "omic": 8867,
      "Ġserv": 8868,
      "ĠSan": 8869,
      "ĠWord": 8870,
      "Ġ1010": 8871,
      "Ġ1022": 8872,
      "Ġ1095": 8873,
      "Ġinven": 8874,
      "ĠCounting": 8875,
      "Ġproton": 8876,
      "Ġ1316": 8877,
      "Ġ1395": 8878,
      "Ġ1420": 8879,
      "Ġ1678": 8880,
      "Ġusage": 8881,
      "Ġ2088": 8882,
      "Ġ2080": 8883,
      "Ġ1740": 8884,
      "ili": 8885,
      "Ġ2277": 8886,
      "Ġ2268": 8887,
      "Ġ3280": 8888,
      "Ġaltitude": 8889,
      "Ġ2970": 8890,
      "enced": 8891,
      "Ġcarbon": 8892,
      "ĠJu": 8893,
      "286": 8894,
      "}}}{{": 8895,
      "Ġ1105": 8896,
      "elsi": 8897,
      ")}^{âĪĴ": 8898,
      "Ġ1302": 8899,
      "ĠForce": 8900,
      "ĠIntegration": 8901,
      "ĠTranslation": 8902,
      "Complete": 8903,
      "Ġrelationships": 8904,
      "Ġobserve": 8905,
      "ĠStrong": 8906,
      "learly": 8907,
      ",âĪŀ).$": 8908,
      "{:}": 8909,
      "ĠUniformly": 8910,
      "ĠCounterexample": 8911,
      "Ġbrackets": 8912,
      "Ġattempt": 8913,
      "Ġhistogram": 8914,
      "Ġpronounced": 8915,
      "Remove": 8916,
      "Ġearthquake": 8917,
      "tirling": 8918,
      "elsius": 8919,
      "700": 8920,
      "Cy": 8921,
      "car": 8922,
      "uv": 8923,
      "Ġart": 8924,
      "rost": 8925,
      "olt": 8926,
      "Ġpyramid": 8927,
      "Ġtoward": 8928,
      "Ġplural": 8929,
      "Ġ1220": 8930,
      "Ġ1218": 8931,
      "Ġ1258": 8932,
      "Ġ1136": 8933,
      "Ġlas": 8934,
      "Ġ1342": 8935,
      "Ġboys": 8936,
      "Ġ1986": 8937,
      "185": 8938,
      "Ġ2451": 8939,
      "ilarity": 8940,
      "Ġ2364": 8941,
      "Ġ2952": 8942,
      "Ġ\\\\\\": 8943,
      "284": 8944,
      "ĠBases": 8945,
      "Ġ1083": 8946,
      "ĠEquals": 8947,
      "Ġarbitrarily": 8948,
      "Ġtransposition": 8949,
      "ivalence": 8950,
      "Cont": 8951,
      "Ġstraightforward": 8952,
      "Ġ2184": 8953,
      "compact": 8954,
      "Ġapproximated": 8955,
      "Ġchecking": 8956,
      "Ġsimpler": 8957,
      "Ġindices": 8958,
      "vectrepname": 8959,
      "ĠHyperbola": 8960,
      "ĠRadical": 8961,
      "Ġsuggested": 8962,
      "Ġdiscontinuity": 8963,
      "Ġtraveled": 8964,
      "Category": 8965,
      "Further": 8966,
      "PS": 8967,
      "Term": 8968,
      "aving": 8969,
      "oding": 8970,
      "erid": 8971,
      "Ġdrin": 8972,
      "Ġtouch": 8973,
      "etre": 8974,
      "Ġinfer": 8975,
      "Ġ1212": 8976,
      "Ġ1210": 8977,
      "Ġ1132": 8978,
      "ĠMost": 8979,
      "ĠElectric": 8980,
      "undle": 8981,
      "Ġ1496": 8982,
      "Ġ1692": 8983,
      "Ġ1866": 8984,
      "Ġ1736": 8985,
      "ayer": 8986,
      "Ġ1917": 8987,
      "Ġstri": 8988,
      "ilt": 8989,
      "ĠPi": 8990,
      "Ġ2380": 8991,
      "Ġ2304": 8992,
      "endre": 8993,
      "Ġ3480": 8994,
      "Exp": 8995,
      "Ġcompounded": 8996,
      "Ġsubinterval": 8997,
      "ĠConjug": 8998,
      "posites": 8999,
      "278": 9000,
      "sess": 9001,
      "Ġ1046": 9002,
      "Ġ1304": 9003,
      "ĠAlpha": 9004,
      "parts": 9005,
      "limination": 9006,
      "Â°)$": 9007,
      "Ġinversely": 9008,
      "ĠCode": 9009,
      "ĠGraphs": 9010,
      "Ġoriginally": 9011,
      "Ġdownward": 9012,
      "algebraic": 9013,
      "Ġplanet": 9014,
      "Ġparameterized": 9015,
      "bedding": 9016,
      "Ġreasons": 9017,
      "Ġcompleted": 9018,
      "ĠHomeomorphic": 9019,
      "Ġpossibility": 9020,
      "Ġcustomers": 9021,
      "Ġbisector": 9022,
      "Ġestimates": 9023,
      "Ġmechanics": 9024,
      "isphere": 9025,
      "metries": 9026,
      "Ġrecurrence": 9027,
      "Ġsoftware": 9028,
      "Division": 9029,
      "GC": 9030,
      "\\}": 9031,
      "cor": 9032,
      "rings": 9033,
      "such": 9034,
      "Ġtut": 9035,
      "Ġblood": 9036,
      "acob": 9037,
      "ĠInvariant": 9038,
      "Ġhum": 9039,
      "Ġ1061": 9040,
      "Ġ1257": 9041,
      "Ġ1274": 9042,
      "Ġ1100": 9043,
      "Ġ1178": 9044,
      "Ġ1186": 9045,
      "Ġ1159": 9046,
      "Ġproving": 9047,
      "Ġ1336": 9048,
      "Ġ1456": 9049,
      "Ġ1432": 9050,
      "Ġ1638": 9051,
      "Ġbod": 9052,
      "Ġ1755": 9053,
      "ĠLab": 9054,
      "Ġ2646": 9055,
      "Ġ2978": 9056,
      "246": 9057,
      "Ġ4920": 9058,
      "}}={": 9059,
      "Ġoperators": 9060,
      "Ġformally": 9061,
      "Ġcomposed": 9062,
      "ĠOur": 9063,
      "circle": 9064,
      "ounts": 9065,
      "omials": 9066,
      "Ġdistin": 9067,
      "radition": 9068,
      "Ġmodern": 9069,
      "Ġzeroes": 9070,
      "),(âĪĴ": 9071,
      "Ġstrateg": 9072,
      "}^-": 9073,
      "xymatrix": 9074,
      "Ġmonotone": 9075,
      "Ġutil": 9076,
      "Ġincome": 9077,
      "Ġcourses": 9078,
      "ĠHeight": 9079,
      "Ġtraveling": 9080,
      "ĠSmooth": 9081,
      "Simple": 9082,
      "Ġounce": 9083,
      "Ġselling": 9084,
      "Ġpossibilities": 9085,
      "plementary": 9086,
      "Ġcaused": 9087,
      "ĠComponent": 9088,
      "bc": 9089,
      "both": 9090,
      "comb": 9091,
      "ew": 9092,
      "onde": 9093,
      "inates": 9094,
      "regular": 9095,
      "Ġcred": 9096,
      "Ġfloor": 9097,
      "ĠInjective": 9098,
      "uster": 9099,
      "Ġ1057": 9100,
      "Ġ1051": 9101,
      "Ġintens": 9102,
      "ĠCom": 9103,
      "Ġ1264": 9104,
      "Ġ1147": 9105,
      "ĠDefinite": 9106,
      "icographic": 9107,
      "Ġ1532": 9108,
      "Ġ1548": 9109,
      "ĠFinally": 9110,
      "Ġ1624": 9111,
      "Ġ1700": 9112,
      "Ġ1776": 9113,
      "Ġ1768": 9114,
      "Ġ1992": 9115,
      "Ġ3596": 9116,
      "Ġ3240": 9117,
      "ticed": 9118,
      "Ġ4950": 9119,
      "Ġapex": 9120,
      "Ġ5328": 9121,
      "urin": 9122,
      "ĠGra": 9123,
      "Ġcomputing": 9124,
      "991": 9125,
      "Ġsubm": 9126,
      "Ġdete": 9127,
      "ĠStrict": 9128,
      "ĉĉĉĉ": 9129,
      "âĪŀ}": 9130,
      "ĠYour": 9131,
      "âĢ²=": 9132,
      "Ġ2128": 9133,
      "^*$.": 9134,
      "Ġcontexts": 9135,
      "Ġbijective": 9136,
      "Ġseparately": 9137,
      "Addition": 9138,
      "ĠTableau": 9139,
      "ĠMinimum": 9140,
      "Ġturning": 9141,
      "ĠIdentifying": 9142,
      "truncatable": 9143,
      "Ġsyllogism": 9144,
      "New": 9145,
      "Ġdistinguished": 9146,
      "uously": 9147,
      "Ġdisplayed": 9148,
      "]^*+{": 9149,
      "Ġsplitting": 9150,
      "eridian": 9151,
      "Ġbodies": 9152,
      ")<": 9153,
      "=âĮ©": 9154,
      "Before": 9155,
      "cm": 9156,
      "yond": 9157,
      "{%}$": 9158,
      "onoff": 9159,
      "Ġ+}$.": 9160,
      "Ġ2120": 9161,
      "isation": 9162,
      "Ġbring": 9163,
      "Ġisosceles": 9164,
      "ĠTry": 9165,
      "Ġshop": 9166,
      "Ġmor": 9167,
      "Ġbeyond": 9168,
      "Ġlattices": 9169,
      "Ġ1449": 9170,
      "Ġ1696": 9171,
      "Ġ1892": 9172,
      "Ġ1722": 9173,
      "Ġ1998": 9174,
      "Ġ2464": 9175,
      "ĠPri": 9176,
      "Ġ3696": 9177,
      "Ġcommands": 9178,
      "Ġ4800": 9179,
      "Ġ4410": 9180,
      "Ġ3840": 9181,
      "Ġmarg": 9182,
      "Ġpool": 9183,
      "0001": 9184,
      "}}({": 9185,
      "lling": 9186,
      "Ġclub": 9187,
      "formally": 9188,
      "elt": 9189,
      "Ġjusti": 9190,
      "ullback": 9191,
      "Ġlocate": 9192,
      "Â°.$": 9193,
      "partialf": 9194,
      "rithmetical": 9195,
      "ĠDistinct": 9196,
      "âĢĸ{": 9197,
      "Ġcomputations": 9198,
      "Ġpositions": 9199,
      "Ġtopic": 9200,
      "Ġcodes": 9201,
      "{Â°}": 9202,
      "Ġautomorphisms": 9203,
      "Ġauthor": 9204,
      "atenation": 9205,
      "Ġprefix": 9206,
      "ychonoff": 9207,
      "*âĢ²": 9208,
      "DB": 9209,
      "GE": 9210,
      "Year": 9211,
      "avi": 9212,
      "eting": 9213,
      "sm": 9214,
      "{âĪ": 9215,
      "Ġtails": 9216,
      "rey": 9217,
      "Ġbits": 9218,
      "Ġfather": 9219,
      "ĠStop": 9220,
      "ĠInv": 9221,
      "ĠWay": 9222,
      "Ġ1069": 9223,
      "Ġ1251": 9224,
      "Ġ1127": 9225,
      "Ġ1426": 9226,
      "Ġ1662": 9227,
      "erset": 9228,
      "Ġ1855": 9229,
      "Ġ1746": 9230,
      "Ġforty": 9231,
      "ilateral": 9232,
      "Ġ2844": 9233,
      "Ġ2724": 9234,
      "Ġ4240": 9235,
      "Ġ3420": 9236,
      "Ġcandid": 9237,
      "ĠGamma": 9238,
      "{{(âĪĴ": 9239,
      "Ġhem": 9240,
      "Ġrotating": 9241,
      "Ġarticle": 9242,
      "Ġsurpr": 9243,
      "Ġoptim": 9244,
      "ĠIdentities": 9245,
      "Ġ6111": 9246,
      "Ġhorizontally": 9247,
      "Ġcreating": 9248,
      "Ġarcs": 9249,
      "ĠCycle": 9250,
      "Ġearly": 9251,
      "Ġâīł": 9252,
      "^-}": 9253,
      "ĠAdjoint": 9254,
      "ĠAbsolutely": 9255,
      "Ġmarks": 9256,
      "Ġreplacement": 9257,
      "ĠSchool": 9258,
      "laurin": 9259,
      "Ġresidual": 9260,
      "ĠImplies": 9261,
      "ĠRectangle": 9262,
      "ermelo": 9263,
      "$'": 9264,
      "EC": 9265,
      "iangular": 9266,
      "heres": 9267,
      "inety": 9268,
      "atowski": 9269,
      "Ġfish": 9270,
      "Ġfav": 9271,
      "Ġfood": 9272,
      "Ġep": 9273,
      "Ġ1025": 9274,
      "Ġ1113": 9275,
      "Ġ1143": 9276,
      "ifies": 9277,
      "Ġ1319": 9278,
[...]
